{
  "version": "1.0",
  "truncation": null,
  "padding": null,
  "added_tokens": [
    {
      "id": 0,
      "content": "<pad>",
      "single_word": false,
      "lstrip": false,
      "rstrip": false,
      "normalized": false,
      "special": true
    },
    {
      "id": 1,
      "content": "<bos>",
      "single_word": false,
      "lstrip": false,
      "rstrip": false,
      "normalized": false,
      "special": true
    },
    {
      "id": 2,
      "content": "<eos>",
      "single_word": false,
      "lstrip": false,
      "rstrip": false,
      "normalized": false,
      "special": true
    },
    {
      "id": 3,
      "content": "<unk>",
      "single_word": false,
      "lstrip": false,
      "rstrip": false,
      "normalized": false,
      "special": true
    }
  ],
  "normalizer": {
    "type": "NFC"
  },
  "pre_tokenizer": {
    "type": "ByteLevel",
    "add_prefix_space": true,
    "trim_offsets": true,
    "use_regex": true
  },
  "post_processor": null,
  "decoder": {
    "type": "ByteLevel",
    "add_prefix_space": true,
    "trim_offsets": true,
    "use_regex": true
  },
  "model": {
    "type": "BPE",
    "dropout": null,
    "unk_token": "<unk>",
    "continuing_subword_prefix": null,
    "end_of_word_suffix": null,
    "fuse_unk": false,
    "byte_fallback": false,
    "ignore_merges": false,
    "vocab": {
      "<pad>": 0,
      "<bos>": 1,
      "<eos>": 2,
      "<unk>": 3,
      "!": 4,
      "\"": 5,
      "#": 6,
      "$": 7,
      "%": 8,
      "&": 9,
      "'": 10,
      "(": 11,
      ")": 12,
      "*": 13,
      "+": 14,
      ",": 15,
      "-": 16,
      ".": 17,
      "/": 18,
      "0": 19,
      "1": 20,
      "2": 21,
      "3": 22,
      "4": 23,
      "5": 24,
      "6": 25,
      "7": 26,
      "8": 27,
      "9": 28,
      ":": 29,
      ";": 30,
      "<": 31,
      "=": 32,
      ">": 33,
      "?": 34,
      "@": 35,
      "A": 36,
      "B": 37,
      "C": 38,
      "D": 39,
      "E": 40,
      "F": 41,
      "G": 42,
      "H": 43,
      "I": 44,
      "J": 45,
      "K": 46,
      "L": 47,
      "M": 48,
      "N": 49,
      "O": 50,
      "P": 51,
      "Q": 52,
      "R": 53,
      "S": 54,
      "T": 55,
      "U": 56,
      "V": 57,
      "W": 58,
      "X": 59,
      "Y": 60,
      "Z": 61,
      "[": 62,
      "\\": 63,
      "]": 64,
      "^": 65,
      "_": 66,
      "`": 67,
      "a": 68,
      "b": 69,
      "c": 70,
      "d": 71,
      "e": 72,
      "f": 73,
      "g": 74,
      "h": 75,
      "i": 76,
      "j": 77,
      "k": 78,
      "l": 79,
      "m": 80,
      "n": 81,
      "o": 82,
      "p": 83,
      "q": 84,
      "r": 85,
      "s": 86,
      "t": 87,
      "u": 88,
      "v": 89,
      "w": 90,
      "x": 91,
      "y": 92,
      "z": 93,
      "{": 94,
      "|": 95,
      "}": 96,
      "¡": 97,
      "£": 98,
      "¤": 99,
      "¥": 100,
      "¦": 101,
      "§": 102,
      "¨": 103,
      "©": 104,
      "ª": 105,
      "«": 106,
      "¬": 107,
      "®": 108,
      "¯": 109,
      "°": 110,
      "±": 111,
      "²": 112,
      "³": 113,
      "´": 114,
      "µ": 115,
      "¶": 116,
      "·": 117,
      "¸": 118,
      "¹": 119,
      "º": 120,
      "»": 121,
      "¼": 122,
      "¾": 123,
      "¿": 124,
      "Â": 125,
      "Ã": 126,
      "Ä": 127,
      "Å": 128,
      "Ç": 129,
      "Î": 130,
      "Ï": 131,
      "â": 132,
      "ä": 133,
      "å": 134,
      "æ": 135,
      "ç": 136,
      "è": 137,
      "é": 138,
      "ï": 139,
      "ð": 140,
      "ĉ": 141,
      "Ċ": 142,
      "č": 143,
      "Ġ": 144,
      "Ģ": 145,
      "ģ": 146,
      "Ĥ": 147,
      "ĥ": 148,
      "Ħ": 149,
      "ħ": 150,
      "Ĩ": 151,
      "ĩ": 152,
      "Ī": 153,
      "ī": 154,
      "Ĭ": 155,
      "ĭ": 156,
      "Į": 157,
      "į": 158,
      "İ": 159,
      "ı": 160,
      "ĳ": 161,
      "Ĵ": 162,
      "ĵ": 163,
      "Ķ": 164,
      "ķ": 165,
      "ĸ": 166,
      "Ĺ": 167,
      "ĺ": 168,
      "Ļ": 169,
      "ļ": 170,
      "Ľ": 171,
      "ľ": 172,
      "Ŀ": 173,
      "ŀ": 174,
      "Ł": 175,
      "ł": 176,
      "Ń": 177,
      "de": 178,
      "en": 179,
      "čĊ": 180,
      "es": 181,
      "Ġde": 182,
      "os": 183,
      "Ġp": 184,
      "ĠĠ": 185,
      "ci": 186,
      "Ġl": 187,
      "ar": 188,
      "Ġc": 189,
      "er": 190,
      "as": 191,
      "on": 192,
      "Ġs": 193,
      "Ġa": 194,
      "or": 195,
      "ti": 196,
      "Ã³": 197,
      "Ġe": 198,
      "al": 199,
      "ad": 200,
      "re": 201,
      "un": 202,
      "an": 203,
      "Ġla": 204,
      "ue": 205,
      "Ġy": 206,
      "in": 207,
      "Ġm": 208,
      "te": 209,
      "Ã³n": 210,
      "**": 211,
      "Ġen": 212,
      "ĠčĊ": 213,
      "aci": 214,
      "ic": 215,
      "ĠĠĠĠ": 216,
      "Ġes": 217,
      "Ġun": 218,
      "que": 219,
      "tr": 220,
      "om": 221,
      "ÃŃ": 222,
      "is": 223,
      "Ã¡": 224,
      "Ġel": 225,
      "Ġcon": 226,
      "to": 227,
      "id": 228,
      "Ġque": 229,
      "ta": 230,
      "le": 231,
      "Ġn": 232,
      "ro": 233,
      "aciÃ³n": 234,
      "Ġd": 235,
      "Ġin": 236,
      "Ġ**": 237,
      "Ġf": 238,
      "Ġpar": 239,
      "im": 240,
      "Ġh": 241,
      "Ġse": 242,
      "tu": 243,
      "Ġcom": 244,
      "ĠE": 245,
      "ol": 246,
      "Ġre": 247,
      "Ã©": 248,
      "Ġo": 249,
      "us": 250,
      "Ġlos": 251,
      "am": 252,
      "ent": 253,
      "ec": 254,
      "Ġpara": 255,
      "ones": 256,
      "Ġv": 257,
      "do": 258,
      "Ġ-": 259,
      "Ġpro": 260,
      "res": 261,
      "Ġuna": 262,
      "Ġb": 263,
      "ĠA": 264,
      "Ġt": 265,
      "tiv": 266,
      "Ġal": 267,
      "iz": 268,
      "ente": 269,
      "ciÃ³n": 270,
      "Ġdel": 271,
      "tos": 272,
      "cu": 273,
      "ĠL": 274,
      "ĠP": 275,
      "Ġ1": 276,
      "ÃŃa": 277,
      "ra": 278,
      "idad": 279,
      "il": 280,
      "Ġlas": 281,
      "pl": 282,
      ":**": 283,
      "Ġ(": 284,
      "ado": 285,
      "Ãº": 286,
      "enci": 287,
      "it": 288,
      "Ġ*": 289,
      "ig": 290,
      "ĠC": 291,
      "ab": 292,
      "Ġg": 293,
      "ter": 294,
      "ĠS": 295,
      "Ġsu": 296,
      "ĠĠĠ": 297,
      "qu": 298,
      "tic": 299,
      "ib": 300,
      "ĠĠĠĠĠĠĠĠ": 301,
      "ac": 302,
      "ales": 303,
      "ien": 304,
      "Ã¡s": 305,
      "em": 306,
      "ul": 307,
      "fic": 308,
      "Ġ2": 309,
      "Ġex": 310,
      "di": 311,
      "Ġdes": 312,
      "Ġcomp": 313,
      "mo": 314,
      "lo": 315,
      "Ġper": 316,
      "--": 317,
      "den": 318,
      "ĠEs": 319,
      "um": 320,
      "Ġpo": 321,
      "da": 322,
      "Ġ\"": 323,
      "Ġpue": 324,
      "ada": 325,
      "Ġres": 326,
      "Ġme": 327,
      "Ġpre": 328,
      "Ġno": 329,
      "por": 330,
      "orm": 331,
      "iv": 332,
      "des": 333,
      "Ġlo": 334,
      "io": 335,
      "Ġte": 336,
      "ĠmÃ¡s": 337,
      "Ġti": 338,
      "tra": 339,
      "encia": 340,
      "uc": 341,
      "ĠLa": 342,
      "Ġpor": 343,
      "ando": 344,
      "si": 345,
      "la": 346,
      "ir": 347,
      "aciones": 348,
      "bre": 349,
      "ur": 350,
      "Ġ=": 351,
      "Ġcomo": 352,
      "ici": 353,
      "tor": 354,
      "Ġim": 355,
      "ida": 356,
      "ĠI": 357,
      "Ġpr": 358,
      "Ġser": 359,
      "lem": 360,
      "go": 361,
      "Ġcu": 362,
      "Ã±": 363,
      "Ġus": 364,
      "Ġr": 365,
      "Ġso": 366,
      "ĠT": 367,
      "der": 368,
      "Ġ3": 369,
      "po": 370,
      "per": 371,
      "ier": 372,
      "ĠM": 373,
      "ia": 374,
      "Ġ|": 375,
      "el": 376,
      "ĠR": 377,
      "Ġan": 378,
      "tas": 379,
      "**:": 380,
      "ados": 381,
      "dad": 382,
      "ica": 383,
      "entes": 384,
      "gun": 385,
      "Ġ\\": 386,
      "cion": 387,
      "ap": 388,
      "tan": 389,
      "Ġtr": 390,
      "Ġj": 391,
      "Ġac": 392,
      "ten": 393,
      "Ġtu": 394,
      "Ġdi": 395,
      "ĠD": 396,
      "Ã¡l": 397,
      "ciones": 398,
      "Ġ4": 399,
      "iento": 400,
      "mer": 401,
      "dr": 402,
      "ativ": 403,
      "Ġmo": 404,
      "aj": 405,
      "tar": 406,
      "Ġprob": 407,
      "aliz": 408,
      "ios": 409,
      "plic": 410,
      "mb": 411,
      "Ġesp": 412,
      "ues": 413,
      "adas": 414,
      "Ãºmer": 415,
      "ido": 416,
      "##": 417,
      "isis": 418,
      "ador": 419,
      "tes": 420,
      "til": 421,
      "mente": 422,
      "ĠĠĠĠĠĠĠ": 423,
      "ma": 424,
      "ĠU": 425,
      "iÃ³n": 426,
      "Ġest": 427,
      "ay": 428,
      "fer": 429,
      "tre": 430,
      "Ġar": 431,
      "se": 432,
      "ĠN": 433,
      "ĠnÃºmer": 434,
      "za": 435,
      "ĠEn": 436,
      "form": 437,
      "con": 438,
      "dic": 439,
      "ĠF": 440,
      "Ġsi": 441,
      "ilidad": 442,
      "Ã¡n": 443,
      "Ã¡lisis": 444,
      "Ġdis": 445,
      "ĠÂ": 446,
      "tur": 447,
      "Ġsobre": 448,
      "tica": 449,
      "Ġ5": 450,
      "Ġpuede": 451,
      "pres": 452,
      "Ġsol": 453,
      "rec": 454,
      "Ġpodr": 455,
      "gr": 456,
      "Ġap": 457,
      "Ġda": 458,
      "----": 459,
      "jor": 460,
      "Ġman": 461,
      "ÃŃs": 462,
      "lar": 463,
      "ific": 464,
      "Ġten": 465,
      "Ġas": 466,
      "pos": 467,
      "Ġinter": 468,
      "ĠEl": 469,
      "ĠB": 470,
      "los": 471,
      "ĠH": 472,
      "Ġpos": 473,
      "Ġproblem": 474,
      "Ġi": 475,
      "Ġuser": 476,
      "ces": 477,
      "eg": 478,
      "fici": 479,
      "Ġpers": 480,
      "eces": 481,
      "amente": 482,
      "Ġu": 483,
      "icas": 484,
      "Ġto": 485,
      "Ġentre": 486,
      "Ġsig": 487,
      "Ġdatos": 488,
      "icos": 489,
      "era": 490,
      "dos": 491,
      "Ġcor": 492,
      "Ġtien": 493,
      "gu": 494,
      "ren": 495,
      "Ġcomple": 496,
      "Ġmejor": 497,
      "Ġ`": 498,
      "ch": 499,
      "ut": 500,
      "onal": 501,
      "00": 502,
      "idades": 503,
      "cl": 504,
      "tro": 505,
      "duc": 506,
      "mos": 507,
      "ist": 508,
      "Ġcam": 509,
      "Ġcons": 510,
      "tiliz": 511,
      "Ġev": 512,
      "les": 513,
      "Ġob": 514,
      "ĠUn": 515,
      "Ġpa": 516,
      "Ġson": 517,
      "iste": 518,
      "entos": 519,
      "fec": 520,
      "ĠcÃ³": 521,
      "tal": 522,
      "tin": 523,
      "ens": 524,
      "Ġgr": 525,
      "ĠnÃºmeros": 526,
      "Ġmode": 527,
      "tim": 528,
      "ico": 529,
      "lec": 530,
      "ticas": 531,
      "ver": 532,
      "uy": 533,
      "ĠAn": 534,
      "uciÃ³n": 535,
      "alu": 536,
      "ĠG": 537,
      "Ġma": 538,
      "dar": 539,
      "je": 540,
      "Ġneces": 541,
      "Ġor": 542,
      "Ġ6": 543,
      "ante": 544,
      "tura": 545,
      "Ġci": 546,
      "Ġle": 547,
      "gor": 548,
      "Ġsus": 549,
      "ĠSe": 550,
      "Ã©s": 551,
      "ĠpodrÃŃa": 552,
      "Ġutiliz": 553,
      "ce": 554,
      "mi": 555,
      "enta": 556,
      "ca": 557,
      "pe": 558,
      "esti": 559,
      "cn": 560,
      "Ġcar": 561,
      "tivo": 562,
      "ug": 563,
      "Ġdeb": 564,
      "uer": 565,
      "Ġprof": 566,
      "Ġop": 567,
      "Ã©n": 568,
      "ĠĠĠĠĠĠĠĠĠĠĠĠĠĠĠĠ": 569,
      "Ġimpor": 570,
      "ĠÂ¿": 571,
      "Ġcap": 572,
      "ana": 573,
      "entar": 574,
      "arro": 575,
      "Ġpl": 576,
      "Ġcr": 577,
      "gorit": 578,
      "min": 579,
      "cia": 580,
      "Ġcal": 581,
      "Ġcre": 582,
      "tros": 583,
      "Ġform": 584,
      "qui": 585,
      "par": 586,
      "Ġdifer": 587,
      "Ġcomplej": 588,
      "tab": 589,
      "car": 590,
      "Ġem": 591,
      "Ġenf": 592,
      "no": 593,
      "ve": 594,
      "empl": 595,
      "cr": 596,
      "xim": 597,
      "arrol": 598,
      "ĠCon": 599,
      "Ġpredic": 600,
      "Ã³r": 601,
      "tern": 602,
      "Ġeste": 603,
      "Ġproblemas": 604,
      "ha": 605,
      "Ġfun": 606,
      "siÃ³n": 607,
      "Ġej": 608,
      "ÃŃn": 609,
      "Ġval": 610,
      "ĠcÃ³mo": 611,
      "cip": 612,
      "Ġalgorit": 613,
      "Ġpueden": 614,
      "Ġk": 615,
      "itar": 616,
      "Ġimp": 617,
      "Ġimportan": 618,
      "ero": 619,
      "Ġinte": 620,
      "empo": 621,
      "Ġperson": 622,
      "25": 623,
      "Ġresp": 624,
      "Ġcl": 625,
      "Ġsim": 626,
      "ias": 627,
      "Ġqu": 628,
      "me": 629,
      "ub": 630,
      "ener": 631,
      "almente": 632,
      "ie": 633,
      "Ġ##": 634,
      "Ġco": 635,
      "Ġsin": 636,
      "tivos": 637,
      "Ã±o": 638,
      "ativas": 639,
      "mbi": 640,
      "ĠRe": 641,
      "Ġ+": 642,
      "Ġab": 643,
      "truc": 644,
      "Ġjue": 645,
      "ĠtÃ©": 646,
      "pa": 647,
      "Ġpas": 648,
      "Ãºn": 649,
      "com": 650,
      "tific": 651,
      "Ġtiempo": 652,
      "ento": 653,
      "cias": 654,
      "Ġinform": 655,
      "Ġhab": 656,
      "izaciÃ³n": 657,
      "Ġaplic": 658,
      "amos": 659,
      "ĠIn": 660,
      "ĠO": 661,
      "uev": 662,
      "Ġinv": 663,
      "Ġsiste": 664,
      ").": 665,
      "tico": 666,
      "Ġposib": 667,
      "Ġpero": 668,
      "sider": 669,
      "ĠÃ¡": 670,
      "ara": 671,
      "ans": 672,
      "og": 673,
      "Ġha": 674,
      "argo": 675,
      "das": 676,
      "Ġ0": 677,
      "Ġref": 678,
      "Ġproces": 679,
      "Ġpregun": 680,
      "Ġenfo": 681,
      "Ġcas": 682,
      "Ġcada": 683,
      "ĠAl": 684,
      "gan": 685,
      "Ġ{": 686,
      "co": 687,
      "eci": 688,
      "van": 689,
      "Ġpres": 690,
      "Ġselec": 691,
      "tiva": 692,
      "Ġcamb": 693,
      "ea": 694,
      "ores": 695,
      "ario": 696,
      "encias": 697,
      "th": 698,
      "Ġro": 699,
      "Ġca": 700,
      "Ġmen": 701,
      "Ġcomun": 702,
      "Ġdesarrol": 703,
      "Ġmedi": 704,
      "alizar": 705,
      "ple": 706,
      "Ġta": 707,
      "ĠmÃ©": 708,
      "ĠLos": 709,
      "Ġgener": 710,
      "Ġbas": 711,
      "Ġ7": 712,
      "orÃŃa": 713,
      "ÃŃan": 714,
      "ternativas": 715,
      "ĠV": 716,
      "Ġ}": 717,
      "ÃŃfic": 718,
      "Ãºs": 719,
      "ga": 720,
      "Ġay": 721,
      "tras": 722,
      "ÃŃas": 723,
      "Ġincl": 724,
      "Ġvar": 725,
      "Ġexpl": 726,
      "amiento": 727,
      "ĠCom": 728,
      "ĠJ": 729,
      "aje": 730,
      "21": 731,
      "ies": 732,
      "miento": 733,
      "cur": 734,
      "ĠanÃ¡lisis": 735,
      "gos": 736,
      "Ġof": 737,
      "chiv": 738,
      "ĠAnÃ¡lisis": 739,
      "ĠinformaciÃ³n": 740,
      "20": 741,
      "TO": 742,
      "nific": 743,
      "ĠSi": 744,
      "--------": 745,
      "Ġtiene": 746,
      "\":": 747,
      "Ġw": 748,
      "ĠĠĠĠĠĠĠĠĠĠĠ": 749,
      "ult": 750,
      "Ġsignific": 751,
      "30": 752,
      "Ġnuev": 753,
      "Ġpreci": 754,
      "Ġayu": 755,
      "oci": 756,
      "tir": 757,
      "trib": 758,
      "Ġalgun": 759,
      "ajo": 760,
      "24": 761,
      "ing": 762,
      "ĠĠĠĠĠ": 763,
      "ombre": 764,
      "actor": 765,
      "Ġprin": 766,
      "fl": 767,
      "sos": 768,
      "Ġ9": 769,
      "Ġequi": 770,
      "Ġrel": 771,
      "porcion": 772,
      "Ġprofun": 773,
      "acional": 774,
      "ho": 775,
      "iar": 776,
      "quier": 777,
      "onde": 778,
      "Ġestra": 779,
      "Ġtrans": 780,
      "Ġ8": 781,
      "Ã±os": 782,
      "16": 783,
      "ual": 784,
      "Ġpla": 785,
      "Ġreg": 786,
      "Ġ10": 787,
      "ĠEsto": 788,
      "ĠÂ¡": 789,
      "Ġplan": 790,
      "tud": 791,
      "quÃŃ": 792,
      "14": 793,
      "ip": 794,
      "Ġtra": 795,
      "Ġexper": 796,
      "adores": 797,
      "cnicas": 798,
      "26": 799,
      "br": 800,
      "bin": 801,
      "Ġespec": 802,
      "Ġapren": 803,
      "Ġejempl": 804,
      "Ġlle": 805,
      "Ġmis": 806,
      "Ġfin": 807,
      "Ġhum": 808,
      "Ġalgoritmo": 809,
      "pec": 810,
      "end": 811,
      "Ġtan": 812,
      "ĠPor": 813,
      "34": 814,
      "ior": 815,
      "Ġefec": 816,
      "antes": 817,
      "Ġins": 818,
      "Ġver": 819,
      "Ġvida": 820,
      "cuencia": 821,
      "iendo": 822,
      "Ġtrab": 823,
      "trones": 824,
      "ĠEste": 825,
      "Ġau": 826,
      "ora": 827,
      "Ġdiferentes": 828,
      "\",": 829,
      "rea": 830,
      "tex": 831,
      "Ġsoci": 832,
      "Ġespeci": 833,
      "Ġmodelo": 834,
      "estig": 835,
      "Ġforma": 836,
      "Ġpol": 837,
      "Ġdiv": 838,
      "Ġiden": 839,
      "23": 840,
      "gen": 841,
      "inu": 842,
      "ista": 843,
      "imiento": 844,
      "Ġhac": 845,
      "tudi": 846,
      "ibilidad": 847,
      "Ġcol": 848,
      "trar": 849,
      "Ġâ": 850,
      "Ġconsider": 851,
      "dap": 852,
      "11": 853,
      "Ġ'": 854,
      "Ã³g": 855,
      "emos": 856,
      "Ġtem": 857,
      "ĠespecÃŃfic": 858,
      "Ġimportante": 859,
      "Ġenfoque": 860,
      ");": 861,
      "37": 862,
      "Ġesta": 863,
      "Ġparti": 864,
      "ima": 865,
      "Ġhay": 866,
      "Ġseg": 867,
      "Ã©r": 868,
      "Ġmanera": 869,
      "cor": 870,
      "eb": 871,
      "yec": 872,
      "Ġdeci": 873,
      "Ã¡c": 874,
      "able": 875,
      "10": 876,
      "iciÃ³n": 877,
      "pre": 878,
      "err": 879,
      "Ġfu": 880,
      "ental": 881,
      "Ġprop": 882,
      "Ġproporcion": 883,
      "ĠPara": 884,
      "Ġsuper": 885,
      "ĠestÃ¡": 886,
      "Ġarchiv": 887,
      "RO": 888,
      "fig": 889,
      "ven": 890,
      "Ġve": 891,
      "Ġpermi": 892,
      "Ġ###": 893,
      "mbiÃ©n": 894,
      "..": 895,
      "13": 896,
      "he": 897,
      "endo": 898,
      "Ġavan": 899,
      "cular": 900,
      "ĠIA": 901,
      "Ġmodelos": 902,
      "15": 903,
      "19": 904,
      "Ġmay": 905,
      "Ġna": 906,
      "Ġalternativas": 907,
      "acto": 908,
      "27": 909,
      "Ġprim": 910,
      "Ġinvestig": 911,
      "fi": 912,
      "ja": 913,
      "acidad": 914,
      "ĠSin": 915,
      "Ġcual": 916,
      "ĠtambiÃ©n": 917,
      "``": 918,
      "las": 919,
      "uci": 920,
      "Ġra": 921,
      "ers": 922,
      "unque": 923,
      "acion": 924,
      "Ġdos": 925,
      "uesta": 926,
      "Ġapro": 927,
      "Ġ```": 928,
      "ĠtÃ©cnicas": 929,
      "Ġexplor": 930,
      "29": 931,
      "ui": 932,
      "Ġdonde": 933,
      "istÃ³r": 934,
      "taciÃ³n": 935,
      "Ġhas": 936,
      "ĠEx": 937,
      "ĠteorÃŃa": 938,
      "ĠpredicciÃ³n": 939,
      "38": 940,
      "In": 941,
      "zo": 942,
      "ong": 943,
      "Ġadap": 944,
      "Ġemb": 945,
      "anos": 946,
      "Ġcombin": 947,
      "Ġam": 948,
      "fin": 949,
      "Ġestudi": 950,
      "Ġ20": 951,
      "uestra": 952,
      "ĠnÃºmero": 953,
      "Ġorgan": 954,
      "gar": 955,
      "lig": 956,
      "Ġcul": 957,
      "tamente": 958,
      "Ġresult": 959,
      "cep": 960,
      "Ġaprend": 961,
      "ati": 962,
      "esi": 963,
      "ano": 964,
      "Ġya": 965,
      "Ġmi": 966,
      "ame": 967,
      "Ġactu": 968,
      "Ġevalu": 969,
      "Ġ$": 970,
      "ĠhistÃ³r": 971,
      "entaciÃ³n": 972,
      "ĠPro": 973,
      "Ġcomplejidad": 974,
      "Ġsistema": 975,
      "):": 976,
      "32": 977,
      "CTO": 978,
      "zar": 979,
      "Ġ[": 980,
      "untos": 981,
      "tec": 982,
      "Ġjug": 983,
      "ĠDes": 984,
      "tural": 985,
      "Ġsolo": 986,
      "Ġproblema": 987,
      "17": 988,
      "39": 989,
      "uciones": 990,
      "ĠÃ©": 991,
      "Ġproyec": 992,
      "Ġresol": 993,
      "Ġmejorar": 994,
      "Ġobje": 995,
      "timizaciÃ³n": 996,
      "Ġidentific": 997,
      "35": 998,
      "ton": 999,
      "recuencia": 1000,
      "tem": 1001,
      "Ġestos": 1002,
      "ĠNo": 1003,
      "Ġtener": 1004,
      "Ġgran": 1005,
      "ob": 1006,
      "ras": 1007,
      "uen": 1008,
      "ĠlÃŃn": 1009,
      "erv": 1010,
      "siones": 1011,
      "cal": 1012,
      "ed": 1013,
      "pen": 1014,
      "entr": 1015,
      "Ġvi": 1016,
      "cional": 1017,
      "Ġpatrones": 1018,
      "ĠselecciÃ³n": 1019,
      "Ġembargo": 1020,
      "36": 1021,
      "cer": 1022,
      "arios": 1023,
      "ĠmÃ¡": 1024,
      "olog": 1025,
      "Ġdesde": 1026,
      "ivel": 1027,
      "Ġtanto": 1028,
      "28": 1029,
      "ex": 1030,
      "jo": 1031,
      "Ġencon": 1032,
      "lex": 1033,
      "Ġreal": 1034,
      "Ġotros": 1035,
      "Ġproduc": 1036,
      "umen": 1037,
      "ĠprÃ¡c": 1038,
      "Ġprincip": 1039,
      "),": 1040,
      "eo": 1041,
      "rom": 1042,
      "ene": 1043,
      "teg": 1044,
      "ĠAquÃŃ": 1045,
      "presa": 1046,
      "alud": 1047,
      "Ġjuego": 1048,
      "Ġsignificativ": 1049,
      "Ġejemplo": 1050,
      "18": 1051,
      "mas": 1052,
      "Ġcontin": 1053,
      "olÃ³g": 1054,
      "ables": 1055,
      "Ġdirec": 1056,
      "Ġide": 1057,
      "12": 1058,
      "jus": 1059,
      "queda": 1060,
      "Ġfactor": 1061,
      "Ġrecur": 1062,
      "abilidad": 1063,
      "turas": 1064,
      "Ġsoluciones": 1065,
      "Ãºsqueda": 1066,
      "Ġtrabajo": 1067,
      "Con": 1068,
      "DU": 1069,
      "ito": 1070,
      "itos": 1071,
      "idos": 1072,
      "Ġtom": 1073,
      "ibr": 1074,
      "ficiente": 1075,
      "gua": 1076,
      "Ġintegr": 1077,
      "RODU": 1078,
      "RODUCTO": 1079,
      "Ġlim": 1080,
      "Ġsalud": 1081,
      "Ġecu": 1082,
      "acia": 1083,
      "idas": 1084,
      "Ġing": 1085,
      "rac": 1086,
      "Ġcuando": 1087,
      "Ġcan": 1088,
      "ible": 1089,
      "uridad": 1090,
      "ĠIm": 1091,
      "crib": 1092,
      "eur": 1093,
      "tenci": 1094,
      "ura": 1095,
      "Ġch": 1096,
      "izaje": 1097,
      "igo": 1098,
      "ĠEsta": 1099,
      "ificaciÃ³n": 1100,
      "Ġsigui": 1101,
      "tribuciÃ³n": 1102,
      "Ġllev": 1103,
      "31": 1104,
      "dum": 1105,
      "plem": 1106,
      "so": 1107,
      "Ġsec": 1108,
      "Ġbo": 1109,
      "ticos": 1110,
      "Ġcomput": 1111,
      "Ġpregunta": 1112,
      "Ġaproxim": 1113,
      "dam": 1114,
      "uta": 1115,
      "Ġestruc": 1116,
      "Ġinfl": 1117,
      "Ġbus": 1118,
      "Ġcompar": 1119,
      "Ġgru": 1120,
      "ĠmÃ©to": 1121,
      "Ġpe": 1122,
      "Ġyo": 1123,
      "Ġmuc": 1124,
      "Ġfor": 1125,
      "dencias": 1126,
      "ĠMe": 1127,
      "Ġcapacidad": 1128,
      "Ġincluy": 1129,
      "33": 1130,
      "fÃŃ": 1131,
      "ona": 1132,
      "Ã³m": 1133,
      "Ġnivel": 1134,
      "Ġjuegos": 1135,
      "Ġarchivo": 1136,
      "Ġavanz": 1137,
      "az": 1138,
      "ita": 1139,
      "Ġecon": 1140,
      "Ġmil": 1141,
      "Ġfuer": 1142,
      "ĠbÃºsqueda": 1143,
      "teri": 1144,
      "Ġ\\(": 1145,
      "Ġtus": 1146,
      "Ġaprendizaje": 1147,
      "22": 1148,
      "eas": 1149,
      "anza": 1150,
      "Ġmar": 1151,
      "Ġint": 1152,
      "tener": 1153,
      "ÃŃsticas": 1154,
      "Ġintelig": 1155,
      "Ġcaus": 1156,
      "Ġmayor": 1157,
      "ran": 1158,
      "int": 1159,
      "Ġmuy": 1160,
      "Ġserv": 1161,
      "ĠserÃŃa": 1162,
      "ÃŃstica": 1163,
      "ĠhistÃ³ricos": 1164,
      "Ġcontinu": 1165,
      "bl": 1166,
      "Ġ/": 1167,
      "Ġadi": 1168,
      "ina": 1169,
      "ulti": 1170,
      "Ġprom": 1171,
      "Ġfundam": 1172,
      "ĠquÃ©": 1173,
      "Ġmenos": 1174,
      "Ġdesarrollo": 1175,
      "Ġencontrar": 1176,
      "dida": 1177,
      "edad": 1178,
      "Ġpes": 1179,
      "Ġaut": 1180,
      "tivas": 1181,
      "ĠestÃ¡n": 1182,
      "Ġayudar": 1183,
      "iencia": 1184,
      "Ã¡tico": 1185,
      "ola": 1186,
      "Ġrev": 1187,
      "Ġbien": 1188,
      "Ġtar": 1189,
      "ular": 1190,
      "Ġrespuesta": 1191,
      "cen": 1192,
      "can": 1193,
      "Ġx": 1194,
      "Ġcer": 1195,
      "ine": 1196,
      "istor": 1197,
      "Ġsegu": 1198,
      "ĠLas": 1199,
      "raf": 1200,
      "quil": 1201,
      "gram": 1202,
      "Ġposible": 1203,
      "Ġnatural": 1204,
      "Qu": 1205,
      "sa": 1206,
      "arse": 1207,
      "ĠaÃ±os": 1208,
      "unto": 1209,
      "Ġcondi": 1210,
      "leza": 1211,
      "Ġsegun": 1212,
      "usiÃ³n": 1213,
      "ĠPue": 1214,
      "ilidades": 1215,
      "dades": 1216,
      "ĠRec": 1217,
      "Ġtodos": 1218,
      ".**": 1219,
      "ft": 1220,
      "pon": 1221,
      "uir": 1222,
      "Ġcos": 1223,
      "Ġcontra": 1224,
      "acter": 1225,
      "Ġresumen": 1226,
      "Ġtecn": 1227,
      "Ġcorrec": 1228,
      "bol": 1229,
      "tÃ©": 1230,
      "tidad": 1231,
      "trol": 1232,
      "Ġhacia": 1233,
      "Ġdescu": 1234,
      "Ġvalor": 1235,
      "Ġhacer": 1236,
      "ĠlÃŃnea": 1237,
      "\"**": 1238,
      "La": 1239,
      "ĠY": 1240,
      "Ġafec": 1241,
      "Ġestab": 1242,
      "Ã©c": 1243,
      "Ġbel": 1244,
      "Ġter": 1245,
      "culo": 1246,
      "ĠTu": 1247,
      "Ġactiv": 1248,
      "Ġtempor": 1249,
      "Ġcualquier": 1250,
      "Ġresolver": 1251,
      "Ġrecursos": 1252,
      "bus": 1253,
      "et": 1254,
      "mit": 1255,
      "nos": 1256,
      "ĠlÃŃ": 1257,
      "Ġlargo": 1258,
      "Ġade": 1259,
      "Ġminu": 1260,
      "olor": 1261,
      "Ġrepres": 1262,
      "termin": 1263,
      "Ġpotenci": 1264,
      "plicaciones": 1265,
      "Ġestrateg": 1266,
      "Ġorganiz": 1267,
      "Ġidentificar": 1268,
      "Ġbelleza": 1269,
      "40": 1270,
      "adamente": 1271,
      "Ġrecom": 1272,
      "ĠPre": 1273,
      "Ġpersona": 1274,
      "itud": 1275,
      "onales": 1276,
      "rez": 1277,
      "Ġelec": 1278,
      "Ġhistor": 1279,
      "Ġsea": 1280,
      "Ġsub": 1281,
      "Ġcompren": 1282,
      "ierra": 1283,
      "ĠDe": 1284,
      "Ġaseg": 1285,
      "Ġdebe": 1286,
      "Ġimplem": 1287,
      "ĠpolÃŃ": 1288,
      "iones": 1289,
      "Ġ<": 1290,
      "Ġsen": 1291,
      "Ã¡m": 1292,
      "Ġconcep": 1293,
      "Ġinici": 1294,
      "Ġfue": 1295,
      "Ġsug": 1296,
      "Ġpuedes": 1297,
      "Ġsitu": 1298,
      "istencia": 1299,
      "ĠUna": 1300,
      "Ġclima": 1301,
      "corpor": 1302,
      "\".": 1303,
      "yo": 1304,
      "Ġdetal": 1305,
      "Ġamb": 1306,
      "Ġmulti": 1307,
      "ismo": 1308,
      "ĠSu": 1309,
      "plicaciÃ³n": 1310,
      "Ġcaracter": 1311,
      "ugar": 1312,
      "Ġimpacto": 1313,
      "Ġpersonas": 1314,
      "Ġofrec": 1315,
      "ologÃŃa": 1316,
      "Ġinteligencia": 1317,
      "):**": 1318,
      "=\"": 1319,
      "eta": 1320,
      "ri": 1321,
      "Ġ#": 1322,
      "orden": 1323,
      "Ġencu": 1324,
      "Ġconoci": 1325,
      "ĠPr": 1326,
      "Ġ19": 1327,
      "ĠNP": 1328,
      "Ġalgunos": 1329,
      "PRODUCTO": 1330,
      "bilidad": 1331,
      "ej": 1332,
      "sis": 1333,
      "ĠW": 1334,
      "Ġesto": 1335,
      "Ġestas": 1336,
      "Ã¡fic": 1337,
      "Ġelem": 1338,
      "Ġnos": 1339,
      "Ġthe": 1340,
      "ples": 1341,
      "Ġusu": 1342,
      "Ġespaci": 1343,
      "ĠsoluciÃ³n": 1344,
      "Ġtienes": 1345,
      "Ġutilizar": 1346,
      "Ġalgoritmos": 1347,
      "Ġtrav": 1348,
      "Ġseguridad": 1349,
      "Ġresultados": 1350,
      "An": 1351,
      "av": 1352,
      "duci": 1353,
      "na": 1354,
      "Ġit": 1355,
      "demos": 1356,
      "Ġlugar": 1357,
      "aso": 1358,
      "Ġambi": 1359,
      "Ġaunque": 1360,
      "Ã³p": 1361,
      "Ġhor": 1362,
      "Ġvis": 1363,
      "Ãºl": 1364,
      "Ã±a": 1365,
      "iere": 1366,
      "Ġand": 1367,
      "presiÃ³n": 1368,
      "Ġcalidad": 1369,
      "Ġrespon": 1370,
      "Ġequipos": 1371,
      "text": 1372,
      "Ġhasta": 1373,
      "Ġfactores": 1374,
      "Ġpap": 1375,
      "Ġlong": 1376,
      "Ġagua": 1377,
      "undo": 1378,
      "Ġhan": 1379,
      "Ġrealizar": 1380,
      "Ġ12": 1381,
      "ĠĠĠĠĠĠĠĠĠĠĠĠĠĠĠ": 1382,
      "urante": 1383,
      "Ġdise": 1384,
      "000": 1385,
      "Ġpreguntas": 1386,
      "Ġalgunas": 1387,
      "ĠeconÃ³m": 1388,
      "ĠtravÃ©s": 1389,
      "En": 1390,
      "digo": 1391,
      "yth": 1392,
      "Ġemo": 1393,
      "Ġmes": 1394,
      "Ġne": 1395,
      "Ġfrecuencia": 1396,
      "Ġhi": 1397,
      "izar": 1398,
      "ĠPo": 1399,
      "Ġpoder": 1400,
      "ĠTierra": 1401,
      "ĠRes": 1402,
      "Ġnecesidades": 1403,
      "Ġcier": 1404,
      "crip": 1405,
      "Ġsistemas": 1406,
      "Ġprocesos": 1407,
      "Ġequipo": 1408,
      "Ġexperiencia": 1409,
      "Ġpermite": 1410,
      "ython": 1411,
      "Re": 1412,
      "st": 1413,
      "dera": 1414,
      "erci": 1415,
      "Ġsal": 1416,
      "Ġajus": 1417,
      "ino": 1418,
      "ilar": 1419,
      "ĠCar": 1420,
      "ĠcuÃ¡n": 1421,
      "Ġcuenta": 1422,
      "tenido": 1423,
      "Ġestado": 1424,
      "ĠpodrÃŃan": 1425,
      "Ġtienen": 1426,
      "ĠoptimizaciÃ³n": 1427,
      "Ġautor": 1428,
      "ĠmÃ¡xim": 1429,
      "quilibr": 1430,
      "Ġadecu": 1431,
      "41": 1432,
      "hos": 1433,
      "pro": 1434,
      "tado": 1435,
      "Ġden": 1436,
      "Ġsens": 1437,
      "Ġentr": 1438,
      "icaciÃ³n": 1439,
      "Ã¡ticas": 1440,
      "amil": 1441,
      "Ġ15": 1442,
      "ema": 1443,
      "Ġmatem": 1444,
      "Ġutilizando": 1445,
      "estiÃ³n": 1446,
      "Ġproceso": 1447,
      "Ġmismo": 1448,
      "Ġfinal": 1449,
      "Ġpeque": 1450,
      "len": 1451,
      "ru": 1452,
      "zas": 1453,
      "osa": 1454,
      "Ġpal": 1455,
      "Ġpuntos": 1456,
      "Ġlib": 1457,
      "titu": 1458,
      "Ġuno": 1459,
      "Ġnuestra": 1460,
      "entales": 1461,
      "ĠCu": 1462,
      "tante": 1463,
      "grÃ¡fic": 1464,
      "laro": 1465,
      "Ġassis": 1466,
      "Ġinteres": 1467,
      "ĠtÃ©r": 1468,
      "Ġprofund": 1469,
      "Ġparticip": 1470,
      "Ġvez": 1471,
      "Ġcondiciones": 1472,
      "tÃ©g": 1473,
      "Ġassistan": 1474,
      "PP": 1475,
      "cib": 1476,
      "cil": 1477,
      "Ġeduc": 1478,
      "Ġmom": 1479,
      "Ġcontrol": 1480,
      "Ġfal": 1481,
      "Ġrecon": 1482,
      "ecu": 1483,
      "Ġbe": 1484,
      "ĠCada": 1485,
      "empre": 1486,
      "Ġpodemos": 1487,
      "Ġusar": 1488,
      "ĠprecisiÃ³n": 1489,
      "ĠrelaciÃ³n": 1490,
      "ordenadas": 1491,
      "Ãºlti": 1492,
      "Ġassistant": 1493,
      "43": 1494,
      "dem": 1495,
      "Ġapo": 1496,
      "ord": 1497,
      "Ġmundo": 1498,
      "omin": 1499,
      "Ġcontex": 1500,
      "Ġsecu": 1501,
      "ece": 1502,
      "port": 1503,
      "ĠteÃ³r": 1504,
      "icios": 1505,
      "ĠMar": 1506,
      "ativo": 1507,
      "Ġarti": 1508,
      "ĠĠĠĠĠĠĠĠĠĠĠĠĠĠĠĠĠĠĠĠĠĠĠĠ": 1509,
      "Ġclas": 1510,
      "ĠaplicaciÃ³n": 1511,
      "----------------": 1512,
      "Ġasegur": 1513,
      "EN": 1514,
      "ag": 1515,
      "eza": 1516,
      "ile": 1517,
      "ov": 1518,
      "ĠÃ³p": 1519,
      "Ġpens": 1520,
      "erg": 1521,
      "reas": 1522,
      "Ġnombre": 1523,
      "Ġparte": 1524,
      "alizaciÃ³n": 1525,
      "Ġif": 1526,
      "Ġprofesi": 1527,
      "Ġempresa": 1528,
      "metros": 1529,
      "Ġcoordenadas": 1530,
      "Ġcaso": 1531,
      "ĠestratÃ©g": 1532,
      "Ġespecialmente": 1533,
      "ĠâĪ": 1534,
      "Ġestructura": 1535,
      "Ġautom": 1536,
      "()": 1537,
      ")**": 1538,
      "drez": 1539,
      "ðĿ": 1540,
      "Ġaje": 1541,
      "Ã³mo": 1542,
      "Ġ**\"": 1543,
      "oluciÃ³n": 1544,
      "ĠLe": 1545,
      "ital": 1546,
      "Ġdescar": 1547,
      "ficial": 1548,
      "ĠcÃ³digo": 1549,
      "nov": 1550,
      "Ġsino": 1551,
      "ĠÃ¡rea": 1552,
      "Ġplazo": 1553,
      "Ġgrupos": 1554,
      "QuÃ©": 1555,
      "ðĿĳ": 1556,
      "))": 1557,
      "ial": 1558,
      "ientos": 1559,
      "serv": 1560,
      "vis": 1561,
      "Â²": 1562,
      "Ġdefin": 1563,
      "Ġdetermin": 1564,
      "tidum": 1565,
      "Ġet": 1566,
      "Ġni": 1567,
      "Ġdin": 1568,
      "turo": 1569,
      "ques": 1570,
      "Ġ\\)": 1571,
      "Ġdebido": 1572,
      "Ġcrear": 1573,
      "Ġcambio": 1574,
      "Ġrobus": 1575,
      "Ġcomunidad": 1576,
      "Ġhumanos": 1577,
      "Ġconsiderar": 1578,
      "Ġdecisiones": 1579,
      "...": 1580,
      "tecciÃ³n": 1581,
      "certidum": 1582,
      "AnÃ¡lisis": 1583,
      "ĠtÃ©rmin": 1584,
      "Ġajedrez": 1585,
      "certidumbre": 1586,
      "ator": 1587,
      "oy": 1588,
      "ype": 1589,
      "Ġaum": 1590,
      "orte": 1591,
      "olencia": 1592,
      "Ġotra": 1593,
      "entas": 1594,
      "ibles": 1595,
      "ĠTe": 1596,
      "Ġ30": 1597,
      "Ġperspec": 1598,
      "Ġimportancia": 1599,
      "ĠÃ¡reas": 1600,
      "Ġvari": 1601,
      "inux": 1602,
      "Ġllevar": 1603,
      "Ġmilitar": 1604,
      "Ġetc": 1605,
      "pu": 1606,
      "vil": 1607,
      "ĠsÃŃ": 1608,
      "tion": 1609,
      "Ġequilibr": 1610,
      "tamiento": 1611,
      "ĠdÃŃa": 1612,
      "ĠfÃŃs": 1613,
      "olu": 1614,
      "ilo": 1615,
      "Ġdesa": 1616,
      "turales": 1617,
      "Ġemple": 1618,
      "Ġaplicaciones": 1619,
      "gentin": 1620,
      "ĠinvestigaciÃ³n": 1621,
      "Ġlongitud": 1622,
      "ĠmÃ¡xima": 1623,
      "aÃ±": 1624,
      "ble": 1625,
      "blem": 1626,
      "pas": 1627,
      "put": 1628,
      "tp": 1629,
      "ĠX": 1630,
      "Ġ_": 1631,
      "one": 1632,
      "Ġsido": 1633,
      "Ġad": 1634,
      "Ġdolor": 1635,
      "Ġind": 1636,
      "Ġfamil": 1637,
      "cul": 1638,
      "Ġpuedo": 1639,
      "Ġ\\[": 1640,
      "Ġ\\]": 1641,
      "cionales": 1642,
      "ativa": 1643,
      "Ġsiempre": 1644,
      "Ġcomplejos": 1645,
      "Ġcambios": 1646,
      "Ġampl": 1647,
      "Ġyou": 1648,
      ".\"": 1649,
      "Es": 1650,
      "TP": 1651,
      "frac": 1652,
      "uz": 1653,
      "}{": 1654,
      "Ġdepen": 1655,
      "uel": 1656,
      "idaciÃ³n": 1657,
      "Ġnorm": 1658,
      "Ġdurante": 1659,
      "Ġinnov": 1660,
      "Ġhub": 1661,
      "Ġbuen": 1662,
      "acciÃ³n": 1663,
      "Ġcomprom": 1664,
      "Ġuso": 1665,
      "Ġcampo": 1666,
      "Ġcir": 1667,
      "Ġposibles": 1668,
      "Ġnuevas": 1669,
      "ĠplanificaciÃ³n": 1670,
      "erram": 1671,
      "Ġraz": 1672,
      "ĠevaluaciÃ³n": 1673,
      "Ġminutos": 1674,
      "Ġambos": 1675,
      "oc": 1676,
      "ocu": 1677,
      "ĠÃ": 1678,
      "Ġmus": 1679,
      "ĠĠĠĠĠĠ": 1680,
      "Ġestar": 1681,
      "Ġconver": 1682,
      "Ġincertidumbre": 1683,
      "Ġher": 1684,
      "Ġries": 1685,
      "Ġanalizar": 1686,
      "Ġtrad": 1687,
      "Ġorig": 1688,
      "Ġrefle": 1689,
      "Ġexperim": 1690,
      "eurÃŃstica": 1691,
      "Ġpalab": 1692,
      "Ġprofundidad": 1693,
      "puÃ©s": 1694,
      "99": 1695,
      "cos": 1696,
      "ht": 1697,
      "jas": 1698,
      "ros": 1699,
      "Ġdemos": 1700,
      "cidad": 1701,
      "Ġentor": 1702,
      "ÃŃo": 1703,
      "Ã¡p": 1704,
      "Ġinf": 1705,
      "Ġoper": 1706,
      "ĠAs": 1707,
      "Ġlog": 1708,
      "Ġtipo": 1709,
      "tores": 1710,
      "ĠdistribuciÃ³n": 1711,
      "Ġtendencias": 1712,
      "Ġgenerar": 1713,
      "Ġprint": 1714,
      "Ġecuaciones": 1715,
      "ĠImplem": 1716,
      "Ġavanzadas": 1717,
      "Ġnaturaleza": 1718,
      "(\"": 1719,
      "has": 1720,
      "hora": 1721,
      "ik": 1722,
      "iform": 1723,
      "vi": 1724,
      "valu": 1725,
      "Ġir": 1726,
      "Ġdem": 1727,
      "Ġpaci": 1728,
      "uego": 1729,
      "ĠmÃºlti": 1730,
      "Ġcontenido": 1731,
      "Ġnum": 1732,
      "Ġherram": 1733,
      "Ġrequier": 1734,
      "Ġotras": 1735,
      "Ġbr": 1736,
      "Ġth": 1737,
      "ulaciÃ³n": 1738,
      "Ġlocal": 1739,
      "lave": 1740,
      "ĠpaÃŃs": 1741,
      "Ġ####": 1742,
      "Ġmedio": 1743,
      "endimiento": 1744,
      "Ġefectos": 1745,
      "Ġlimit": 1746,
      "Ġfundamental": 1747,
      "ĠPuedes": 1748,
      "Ġsecuencias": 1749,
      "ĠmÃºltiples": 1750,
      "Des": 1751,
      "lio": 1752,
      "my": 1753,
      "pi": 1754,
      "pren": 1755,
      "rbol": 1756,
      "onar": 1757,
      "adr": 1758,
      "Ġconv": 1759,
      "Ġneg": 1760,
      "Ġprogram": 1761,
      "ĠPa": 1762,
      "igual": 1763,
      "ula": 1764,
      "ulta": 1765,
      "dencia": 1766,
      "tancias": 1767,
      "alizado": 1768,
      "Ġdispon": 1769,
      "Ġmejora": 1770,
      "Ġnecesit": 1771,
      "Ġorden": 1772,
      "Ġ60": 1773,
      "uerda": 1774,
      "Ġpaso": 1775,
      "Ġayuda": 1776,
      "Ġrelacion": 1777,
      "Ġfuturo": 1778,
      "Ġexplorar": 1779,
      "Ġevaluar": 1780,
      "Ġviolencia": 1781,
      "ĠmÃ©todos": 1782,
      "Ġactividades": 1783,
      "Ġestrategias": 1784,
      "Ġorganizacional": 1785,
      "Ġusuarios": 1786,
      "Ġapoyo": 1787,
      "Pro": 1788,
      "TM": 1789,
      "ck": 1790,
      "gre": 1791,
      "lado": 1792,
      "âĢ": 1793,
      "engu": 1794,
      "Ġcur": 1795,
      "Ġefici": 1796,
      "anas": 1797,
      "Ġmin": 1798,
      "Ã¡tica": 1799,
      "Ġconfi": 1800,
      "Ġnues": 1801,
      "Ġdig": 1802,
      "imen": 1803,
      "ustr": 1804,
      "ĠAunque": 1805,
      "ĠPython": 1806,
      "Ġ13": 1807,
      "iblio": 1808,
      "cionar": 1809,
      "drÃŃa": 1810,
      "config": 1811,
      "Ġapar": 1812,
      "ĠBPP": 1813,
      "Ġpersonal": 1814,
      "Ġobtener": 1815,
      "ubl": 1816,
      "trucciÃ³n": 1817,
      "ĠOp": 1818,
      "Ġreflex": 1819,
      "Ġdesarrollar": 1820,
      "Ġgeneral": 1821,
      "Ġproporcionar": 1822,
      "Ġincluyendo": 1823,
      "Ġpotencial": 1824,
      "ĠcaracterÃŃsticas": 1825,
      "Ġartificial": 1826,
      ")^": 1827,
      "Com": 1828,
      "tez": 1829,
      "Ġconfig": 1830,
      "cula": 1831,
      "Ġnoti": 1832,
      "ĠDis": 1833,
      "Ġprobabilidad": 1834,
      "gru": 1835,
      "clusiÃ³n": 1836,
      "Ġley": 1837,
      "ĠConsider": 1838,
      "Ġkilo": 1839,
      "Ġtransform": 1840,
      "Ġsocial": 1841,
      "Ġestudiantes": 1842,
      "Ġjugadores": 1843,
      "Ġsiguiente": 1844,
      "Ġsiguientes": 1845,
      "rafÃŃa": 1846,
      "Ġsegundo": 1847,
      "ducir": 1848,
      "ĠdiseÃ±o": 1849,
      "portun": 1850,
      "ĠtÃ©rminos": 1851,
      "\">": 1852,
      "CÃ³mo": 1853,
      "bo": 1854,
      "jempl": 1855,
      "uj": 1856,
      "udo": 1857,
      "Ġlengu": 1858,
      "ĠcÃŃ": 1859,
      "Ġeleg": 1860,
      "taform": 1861,
      "Ġotro": 1862,
      "ama": 1863,
      "amb": 1864,
      "Ġviv": 1865,
      "Ġvia": 1866,
      "Ġalgo": 1867,
      "ĠgestiÃ³n": 1868,
      "ientras": 1869,
      "locidad": 1870,
      "Ġprepar": 1871,
      "Ġtipos": 1872,
      "ierno": 1873,
      "tancia": 1874,
      "Ġ40": 1875,
      "table": 1876,
      "256": 1877,
      "Ġsimilar": 1878,
      "Ġcasos": 1879,
      "Ã©rica": 1880,
      "Ġcultura": 1881,
      "enefici": 1882,
      "ĠcomputaciÃ³n": 1883,
      "ON": 1884,
      "cre": 1885,
      "dom": 1886,
      "pt": 1887,
      "tales": 1888,
      "val": 1889,
      "âĤ": 1890,
      "Ġera": 1891,
      "cin": 1892,
      "Ġcentr": 1893,
      "Ġclave": 1894,
      "ĠaÃºn": 1895,
      "Ġedad": 1896,
      "Ġeficiente": 1897,
      "alidad": 1898,
      "Ġmon": 1899,
      "Ġmenci": 1900,
      "tel": 1901,
      "Ġescen": 1902,
      "Ġindi": 1903,
      "Ġoportun": 1904,
      "Ġbiblio": 1905,
      "aca": 1906,
      "Ġcompor": 1907,
      "ĠrÃ¡p": 1908,
      "ĠMo": 1909,
      "ĠespaÃ±": 1910,
      "ĠUtiliz": 1911,
      "Ġmateri": 1912,
      "Ġcaptur": 1913,
      "ĠcrÃŃ": 1914,
      "Ġdiferencia": 1915,
      "Ġpredictivos": 1916,
      "ĠÃ¡rbol": 1917,
      "ĠAlgun": 1918,
      "Ġsociales": 1919,
      "Ġgrandes": 1920,
      "ĠprÃ¡ctica": 1921,
      "ĠecuaciÃ³n": 1922,
      "Ġcantidad": 1923,
      "ĠmÃ©todo": 1924,
      "fÃŃos": 1925,
      "Ġadicionales": 1926,
      "Ġsensibilidad": 1927,
      "ĠespaÃ±ol": 1928,
      "AC": 1929,
      "Nombre": 1930,
      "gn": 1931,
      "ite": 1932,
      "mar": 1933,
      "pan": 1934,
      "str": 1935,
      "vin": 1936,
      "vid": 1937,
      "Î¼": 1938,
      "oso": 1939,
      "Ġcab": 1940,
      "ern": 1941,
      "Ġsue": 1942,
      "inom": 1943,
      "Ġmer": 1944,
      "omo": 1945,
      "ĠelÃ©c": 1946,
      "Ġdomin": 1947,
      "Ġbaj": 1948,
      "ĠAr": 1949,
      "tividad": 1950,
      "Ġ11": 1951,
      "dio": 1952,
      "Ġresorte": 1953,
      "Ġtex": 1954,
      "Ġrendimiento": 1955,
      "ativos": 1956,
      "Ġcorre": 1957,
      "Ġcorto": 1958,
      "Ġconstante": 1959,
      "Ġmatr": 1960,
      "Ġnecesario": 1961,
      "mientos": 1962,
      "hat": 1963,
      "ĠsegÃºn": 1964,
      "Ġprimer": 1965,
      "ĠexploraciÃ³n": 1966,
      "Ġprofesional": 1967,
      "ĠelÃ©ctr": 1968,
      "OM": 1969,
      "ientes": 1970,
      "itivo": 1971,
      "lan": 1972,
      "ww": 1973,
      "cimiento": 1974,
      "Ġsor": 1975,
      "Ġsab": 1976,
      "tibilidad": 1977,
      "anti": 1978,
      "Ġestr": 1979,
      "iso": 1980,
      "isiÃ³n": 1981,
      "Ã¡metros": 1982,
      "Ġredes": 1983,
      "ecer": 1984,
      "Ġ17": 1985,
      "plica": 1986,
      "Ãºbl": 1987,
      "itor": 1988,
      "Ġgus": 1989,
      "ĠSim": 1990,
      "posiciÃ³n": 1991,
      "Ġtodas": 1992,
      "ducciÃ³n": 1993,
      "Ġobserv": 1994,
      "Ġopciones": 1995,
      "ĠcreaciÃ³n": 1996,
      "Ġabor": 1997,
      "Ġseleccion": 1998,
      "Ġweb": 1999,
      "Ġdivers": 2000,
      "Ġinvestigador": 2001,
      "Ġresultado": 2002,
      "ĠDesarrol": 2003,
      "Ġproyectos": 2004,
      "Ġobjetivo": 2005,
      "Ġideas": 2006,
      "ĠsituaciÃ³n": 2007,
      "avor": 2008,
      "ercici": 2009,
      "ĠcuÃ¡ntica": 2010,
      "gentina": 2011,
      "bor": 2012,
      "ide": 2013,
      "sub": 2014,
      "ost": 2015,
      "osten": 2016,
      "Ġps": 2017,
      "ĠcÃ¡l": 2018,
      "idor": 2019,
      "ĠcomÃºn": 2020,
      "Ġbal": 2021,
      "ĠAdem": 2022,
      "culos": 2023,
      "Ġ14": 2024,
      "Ġgob": 2025,
      "lob": 2026,
      "ivers": 2027,
      "aliza": 2028,
      "seg": 2029,
      "Ġcorona": 2030,
      "istema": 2031,
      "ting": 2032,
      "Ġvalores": 2033,
      "Ġtrabaj": 2034,
      "Ġhace": 2035,
      "file": 2036,
      "Ġproyecto": 2037,
      "Ġcausar": 2038,
      "ĠestÃ¡ndar": 2039,
      "Ġtemporal": 2040,
      "cript": 2041,
      "Ġdentro": 2042,
      "Ġentren": 2043,
      "Ġequilibrio": 2044,
      "Ġempleados": 2045,
      "Ġdemostr": 2046,
      "ĠAdemÃ¡s": 2047,
      "Cu": 2048,
      "ato": 2049,
      "cado": 2050,
      "cel": 2051,
      "iente": 2052,
      "ota": 2053,
      "pr": 2054,
      "ĠK": 2055,
      "Ġderec": 2056,
      "cir": 2057,
      "acil": 2058,
      "Ġesper": 2059,
      "Ġdar": 2060,
      "Ġinver": 2061,
      "Ġfr": 2062,
      "Ġbi": 2063,
      "ĠbÃ¡s": 2064,
      "Ġbajo": 2065,
      "Ġbenefici": 2066,
      "Ġtal": 2067,
      "Ġtype": 2068,
      "ĠdespuÃ©s": 2069,
      "ĠLaura": 2070,
      "Ġimplicaciones": 2071,
      "ĠMon": 2072,
      "Ġace": 2073,
      "tender": 2074,
      "cha": 2075,
      "uye": 2076,
      "ĠcomunicaciÃ³n": 2077,
      "Ġbase": 2078,
      "ĠcontinuaciÃ³n": 2079,
      "Ġhistoria": 2080,
      "Ġelementos": 2081,
      "Ġespacio": 2082,
      "jemplo": 2083,
      "Ġindivid": 2084,
      "El": 2085,
      "STM": 2086,
      "bas": 2087,
      "cas": 2088,
      "ge": 2089,
      "gas": 2090,
      "tÃ³n": 2091,
      "uales": 2092,
      "Ġtab": 2093,
      "Ġdef": 2094,
      "ĠpÃºbl": 2095,
      "ares": 2096,
      "ert": 2097,
      "inal": 2098,
      "Ġalim": 2099,
      "Ġ16": 2100,
      "terap": 2101,
      "Ġmedida": 2102,
      "Ġlogr": 2103,
      "ĠprÃ³": 2104,
      "Ġcuadr": 2105,
      "Ġusando": 2106,
      "tarse": 2107,
      "uesto": 2108,
      "Ġmanz": 2109,
      "ĠHe": 2110,
      "time": 2111,
      "Ġcalcular": 2112,
      "ĠfunciÃ³n": 2113,
      "ĠIncorpor": 2114,
      "Ġidea": 2115,
      "Ġaproximadamente": 2116,
      "ĠtecnologÃŃa": 2117,
      "Ġelectr": 2118,
      "ĠmatemÃ¡ticas": 2119,
      "ĠeducaciÃ³n": 2120,
      "ĠÃ³pti": 2121,
      "Ġrobustez": 2122,
      "Ġtradici": 2123,
      "Ġentorno": 2124,
      "Ġnoticias": 2125,
      "xito": 2126,
      "entra": 2127,
      "Ġpunto": 2128,
      "are": 2129,
      "tio": 2130,
      "tiene": 2131,
      "Ġmas": 2132,
      "omb": 2133,
      "Ġinde": 2134,
      "Ġfavor": 2135,
      "ĠhÃŃ": 2136,
      "Ġhec": 2137,
      "olo": 2138,
      "Ġvo": 2139,
      "ĠAm": 2140,
      "rate": 2141,
      "Ãºrate": 2142,
      "aba": 2143,
      "Ġge": 2144,
      "aces": 2145,
      "Ġprede": 2146,
      "Ġloc": 2147,
      "Ġporque": 2148,
      "Ġrad": 2149,
      "tenciÃ³n": 2150,
      "ĠFK": 2151,
      "ĠFTP": 2152,
      "Ġsolici": 2153,
      "Ġmejoras": 2154,
      "istentes": 2155,
      "Ġsociedad": 2156,
      "Ġsuperior": 2157,
      "ĠÃ©l": 2158,
      "Ġobjetivos": 2159,
      "ĠprÃ¡cticas": 2160,
      "ĠMejor": 2161,
      "Ġfuerza": 2162,
      "Ġtemporales": 2163,
      "ĠcomprensiÃ³n": 2164,
      "Ġconcepto": 2165,
      "grÃ¡ficas": 2166,
      "Ġcontexto": 2167,
      "ĠestratÃ©gica": 2168,
      "Ġperspectiva": 2169,
      "AL": 2170,
      "man": 2171,
      "Ġz": 2172,
      "Ġid": 2173,
      "Ġdej": 2174,
      "Ġcens": 2175,
      "Ġscript": 2176,
      "ĠaquÃŃ": 2177,
      "adre": 2178,
      "Ġmientras": 2179,
      "**.": 2180,
      "Ġenerg": 2181,
      "Ġuniform": 2182,
      "Ġfas": 2183,
      "Ġrecib": 2184,
      "Ġvol": 2185,
      "Ġveces": 2186,
      "Ġtes": 2187,
      "Ġalto": 2188,
      "Ġ18": 2189,
      "Ġgeo": 2190,
      "ienta": 2191,
      "dific": 2192,
      "ĠEstos": 2193,
      "iva": 2194,
      "uros": 2195,
      "Ġran": 2196,
      "ĠTen": 2197,
      "Ġantes": 2198,
      "Ġ\\,": 2199,
      "alizada": 2200,
      "ayesi": 2201,
      "Ġtodo": 2202,
      "Ġtotal": 2203,
      "Ġevitar": 2204,
      "Ġutiliza": 2205,
      "path": 2206,
      "Ġhabilidades": 2207,
      "ĠmÃ©dic": 2208,
      "ĠVal": 2209,
      "Ġauto": 2210,
      "Ġarchivos": 2211,
      "venciÃ³n": 2212,
      "Ġprimero": 2213,
      "olÃ³gicos": 2214,
      "Ġtoma": 2215,
      "Ġintegral": 2216,
      "dummy": 2217,
      "Ġservidor": 2218,
      "Ġbienes": 2219,
      "ĠRecuerda": 2220,
      "Ġrepresentar": 2221,
      "ĠpolÃŃticas": 2222,
      "Ġsugiere": 2223,
      "Ġlenguaje": 2224,
      "Ġcapturar": 2225,
      "ĠestrÃ©s": 2226,
      "Ġpsic": 2227,
      "CT": 2228,
      "Rec": 2229,
      "SP": 2230,
      "cando": 2231,
      "dan": 2232,
      "kov": 2233,
      "ĠÃºn": 2234,
      "Ġigual": 2235,
      "Ġles": 2236,
      "aria": 2237,
      "ono": 2238,
      "Ġlabor": 2239,
      "Ġunivers": 2240,
      "Ġcontrib": 2241,
      "Ġalum": 2242,
      "ill": 2243,
      "ith": 2244,
      "ulaciones": 2245,
      "uraciÃ³n": 2246,
      "Ġ==": 2247,
      "Ġpriv": 2248,
      "Ġ43": 2249,
      "uestas": 2250,
      "Ġart": 2251,
      "timas": 2252,
      "ĠGran": 2253,
      "mite": 2254,
      "Ġcruci": 2255,
      "Ġsimple": 2256,
      "medi": 2257,
      "Ġvarios": 2258,
      "Ġnuevos": 2259,
      "Ġplataform": 2260,
      "Ġejemplos": 2261,
      "ĠcombinaciÃ³n": 2262,
      "ĠorganizaciÃ³n": 2263,
      "Ġsignificativo": 2264,
      "Ġtomar": 2265,
      "cribir": 2266,
      "Ġchar": 2267,
      "Ġhoras": 2268,
      "Ġciertos": 2269,
      "Ġmomento": 2270,
      "ĠMarkov": 2271,
      "Ġdeterminar": 2272,
      "Ġconfianza": 2273,
      "ĠcÃŃr": 2274,
      "Ġabordar": 2275,
      "submit": 2276,
      ")**:": 2277,
      "ES": 2278,
      "LE": 2279,
      "eti": 2280,
      "iales": 2281,
      "iden": 2282,
      "rr": 2283,
      "utu": 2284,
      "ware": 2285,
      "delos": 2286,
      "ĠĠčĊ": 2287,
      "Ġleg": 2288,
      "arÃŃa": 2289,
      "Ġale": 2290,
      "unci": 2291,
      "ĠmÃºs": 2292,
      "icamente": 2293,
      "istas": 2294,
      "Ġconj": 2295,
      "Ġconex": 2296,
      "leÃ±o": 2297,
      "Ġflex": 2298,
      "Ġpartes": 2299,
      "ĠEvalu": 2300,
      "Ġrequ": 2301,
      "ĠprotecciÃ³n": 2302,
      "tivamente": 2303,
      "ĠLinux": 2304,
      "ĠPK": 2305,
      "Ġglob": 2306,
      "terior": 2307,
      "ĠĠĠĠĠĠĠĠĠĠĠĠĠ": 2308,
      "Ġ24": 2309,
      "Ġexha": 2310,
      "Ġperfec": 2311,
      "Ġcuer": 2312,
      "Ġruta": 2313,
      "gunta": 2314,
      "ĠestÃ¡s": 2315,
      "ĠasÃŃ": 2316,
      "Ġdeben": 2317,
      "Ġempres": 2318,
      "paÃ±a": 2319,
      "ĠOb": 2320,
      "Ġnuevo": 2321,
      "Ġhumana": 2322,
      "ĠespecÃŃficas": 2323,
      "Ġdecir": 2324,
      "Ġculturales": 2325,
      "Ġservicios": 2326,
      "Ġcerc": 2327,
      "Ã¡mica": 2328,
      "ĠPodrÃŃa": 2329,
      "Ġreconoci": 2330,
      "ĠâĪ«": 2331,
      "Ġtexto": 2332,
      "ĠprÃ³xim": 2333,
      "Ġcrucial": 2334,
      "Ġexhaus": 2335,
      "':": 2336,
      "08": 2337,
      "42": 2338,
      "AR": 2339,
      "Paso": 2340,
      "jos": 2341,
      "va": 2342,
      "ðŁ": 2343,
      "Ġpubl": 2344,
      "Ġlig": 2345,
      "ard": 2346,
      "tido": 2347,
      "titud": 2348,
      "incip": 2349,
      "Ġmos": 2350,
      "Ġmens": 2351,
      "Ġesc": 2352,
      "ĠdÎ¼": 2353,
      "ĠfÃ¡": 2354,
      "Ġrecor": 2355,
      "ĠAc": 2356,
      "ĠtÃº": 2357,
      "abor": 2358,
      "acciones": 2359,
      "Ġexpres": 2360,
      "ĠexpresiÃ³n": 2361,
      "lemente": 2362,
      "Ġtres": 2363,
      "Ġjus": 2364,
      "Ġmov": 2365,
      "Ġmoder": 2366,
      "Ġprobab": 2367,
      "ĠFrecuencia": 2368,
      "Ġmantener": 2369,
      "ceso": 2370,
      "istente": 2371,
      "Ġconsul": 2372,
      "Ġeventos": 2373,
      "ĠopciÃ³n": 2374,
      "Ġcrisis": 2375,
      "Ġejercici": 2376,
      "tificaciÃ³n": 2377,
      "Ġ},": 2378,
      "Ġsignifica": 2379,
      "Ġmisma": 2380,
      "Ġfinan": 2381,
      "ĠespecÃŃfica": 2382,
      "Ġvelocidad": 2383,
      "ĠÃ©xito": 2384,
      "Ġprincipal": 2385,
      "Ġcomputacional": 2386,
      "Ġayudarte": 2387,
      "Ġdescubr": 2388,
      "Ġrecomend": 2389,
      "Ġimplementar": 2390,
      "ĠdesafÃŃos": 2391,
      "Ġindustr": 2392,
      "Ġhubies": 2393,
      "Ġcompromiso": 2394,
      "ĠOptimizaciÃ³n": 2395,
      "âĤĻ": 2396,
      "Ġmencion": 2397,
      "OMP": 2398,
      "Pre": 2399,
      "Te": 2400,
      "dl": 2401,
      "ez": 2402,
      "game": 2403,
      "lÃ©s": 2404,
      "âģ": 2405,
      "Ġis": 2406,
      "ĠÃº": 2407,
      "Ġerr": 2408,
      "ena": 2409,
      "Ġlec": 2410,
      "Ġclar": 2411,
      "Ġstr": 2412,
      "Ġacu": 2413,
      "orÃŃas": 2414,
      "**,": 2415,
      "Ġentender": 2416,
      "Ġesenci": 2417,
      "Ġescr": 2418,
      "ÃŃg": 2419,
      "ĠdÃŃas": 2420,
      "Ġindic": 2421,
      "Ġfacil": 2422,
      "Ġretur": 2423,
      "entan": 2424,
      "entando": 2425,
      "ĠAseg": 2426,
      "ĠPer": 2427,
      "Ãºa": 2428,
      "ĠCal": 2429,
      "Ġgar": 2430,
      "Ġrespe": 2431,
      "torio": 2432,
      "Ġru": 2433,
      "ĠTr": 2434,
      "Ġarte": 2435,
      "ificar": 2436,
      "Ġrefin": 2437,
      "Ġmediante": 2438,
      "chivo": 2439,
      "Ġprofundo": 2440,
      "Ġparticular": 2441,
      "ĠinglÃ©s": 2442,
      "cribe": 2443,
      "Ġbusca": 2444,
      "Ġmucho": 2445,
      "Ġseguir": 2446,
      "Ġsentir": 2447,
      "Ġsituaciones": 2448,
      "Ġofrece": 2449,
      "Ġambiente": 2450,
      "ĠbeleÃ±o": 2451,
      "ĠautomÃ¡tico": 2452,
      "Ġlocales": 2453,
      "ĠenergÃŃa": 2454,
      "rror": 2455,
      "ĠÃºtil": 2456,
      "Ġreturn": 2457,
      "',": 2458,
      "//": 2459,
      "://": 2460,
      "Bo": 2461,
      "be": 2462,
      "iÃ³": 2463,
      "line": 2464,
      "pir": 2465,
      "Ġer": 2466,
      "Ġlado": 2467,
      "Ġline": 2468,
      "Ġcero": 2469,
      "Ã³l": 2470,
      "unca": 2471,
      "anto": 2472,
      "Ġmic": 2473,
      "Ġmental": 2474,
      "Ġsean": 2475,
      "Ġsecuencia": 2476,
      "uso": 2477,
      "Ġven": 2478,
      "Ġblo": 2479,
      "Ġbayesi": 2480,
      "Ġthat": 2481,
      "Ġalcan": 2482,
      "ĠLo": 2483,
      "rag": 2484,
      "ĠCh": 2485,
      "ĠSan": 2486,
      "Ġpobl": 2487,
      "Ġmed": 2488,
      "Ġsoft": 2489,
      "ferencias": 2490,
      "Ġconsecu": 2491,
      "Ġenfr": 2492,
      "Ġhaber": 2493,
      "ĠAlternativas": 2494,
      "Ġpresento": 2495,
      "Ġmenor": 2496,
      "Ġnueva": 2497,
      "Ġrelaciones": 2498,
      "Ġformato": 2499,
      "Ġdiver": 2500,
      "Ġâī": 2501,
      "Ġproporciona": 2502,
      "Ġestudio": 2503,
      "atis": 2504,
      "tonces": 2505,
      "Ġgrupo": 2506,
      "Ġmuchos": 2507,
      "Ġfundamentales": 2508,
      "Ġrevel": 2509,
      "Ġcomprender": 2510,
      "ĠLey": 2511,
      "ĠinnovaciÃ³n": 2512,
      "Ġminim": 2513,
      "Ġcomportamiento": 2514,
      "ĠModelos": 2515,
      "Ġmatriz": 2516,
      "Ġbienestar": 2517,
      "Ġcuerpo": 2518,
      "\");": 2519,
      "AM": 2520,
      "gres": 2521,
      "ientas": 2522,
      "ler": 2523,
      "mac": 2524,
      "mica": 2525,
      "ne": 2526,
      "ĠðŁ": 2527,
      "Ġdedic": 2528,
      "eraciÃ³n": 2529,
      "ond": 2530,
      "Ġagru": 2531,
      "ĠatenciÃ³n": 2532,
      "inas": 2533,
      "ice": 2534,
      "tracto": 2535,
      "omÃŃa": 2536,
      "ÃŃz": 2537,
      "idar": 2538,
      "Ġfis": 2539,
      "imo": 2540,
      "Ġred": 2541,
      "ust": 2542,
      "entÃŃfic": 2543,
      "echa": 2544,
      "iza": 2545,
      "itaciÃ³n": 2546,
      "Ġgu": 2547,
      "Ġgra": 2548,
      "Ġsur": 2549,
      "iens": 2550,
      "Ġextre": 2551,
      "Ġdesta": 2552,
      "Ġpoco": 2553,
      "ĠMa": 2554,
      "Ġtras": 2555,
      "ĠDa": 2556,
      "plicar": 2557,
      "ferencia": 2558,
      "ĠpodrÃŃas": 2559,
      "Ġinterpre": 2560,
      "ficie": 2561,
      "Ġconstr": 2562,
      "ĠcientÃŃfic": 2563,
      "Ġutilizado": 2564,
      "Ġprofes": 2565,
      "ĠĠĠĠĠĠĠĠĠĠĠĠĠĠĠĠĠĠĠĠĠĠĠĠĠĠĠ": 2566,
      "minis": 2567,
      "Ã³rm": 2568,
      "Ġku": 2569,
      "Ġcambiar": 2570,
      "Ġmedia": 2571,
      "Ġvarias": 2572,
      "Ġregular": 2573,
      "Ġpolinom": 2574,
      "Ġpropie": 2575,
      "acionales": 2576,
      "Ġactual": 2577,
      "ĠProblem": 2578,
      "tecas": 2579,
      "Ġpromo": 2580,
      "Ġtarea": 2581,
      "Ġtermin": 2582,
      "Ġconceptos": 2583,
      "Ġrespons": 2584,
      "Ġasegurar": 2585,
      "ðĿĳ¥": 2586,
      "ðĿĳ¦": 2587,
      "Ġvariables": 2588,
      "tps": 2589,
      "Ġaceite": 2590,
      "Ġfinanci": 2591,
      "100": 2592,
      "IA": 2593,
      "dido": 2594,
      "han": 2595,
      "ire": 2596,
      "ocer": 2597,
      "ude": 2598,
      "ygame": 2599,
      "Ġ.": 2600,
      "Ġos": 2601,
      "Ġon": 2602,
      "Ġur": 2603,
      "estruc": 2604,
      "Ġpel": 2605,
      "asas": 2606,
      "Ġsatis": 2607,
      "Ġat": 2608,
      "Ġagre": 2609,
      "orema": 2610,
      "isten": 2611,
      "Ġinten": 2612,
      "imientos": 2613,
      "ĠAhora": 2614,
      "Ġalta": 2615,
      "ĠPRODUCTO": 2616,
      "ign": 2617,
      "Ġgan": 2618,
      "ĠĠĠĠĠĠĠĠĠ": 2619,
      "dientes": 2620,
      "ĠEstas": 2621,
      "ĠEspaÃ±a": 2622,
      "data": 2623,
      "ioterap": 2624,
      "sidera": 2625,
      "torios": 2626,
      "ĠIden": 2627,
      "Ġprior": 2628,
      "Ġtran": 2629,
      "Ġacciones": 2630,
      "ĠdifÃŃ": 2631,
      "merg": 2632,
      "Ġmodific": 2633,
      "Ġmanej": 2634,
      "Ġnecesita": 2635,
      "entajas": 2636,
      "ĠRef": 2637,
      "comple": 2638,
      "Ġropas": 2639,
      "ĠComo": 2640,
      "Ġwh": 2641,
      "reak": 2642,
      "ĠespecÃŃfico": 2643,
      "Ġjugador": 2644,
      "Ġproducto": 2645,
      "Ġfortal": 2646,
      "Ġestablec": 2647,
      "Ġestrategia": 2648,
      "Ġdetall": 2649,
      "Ġelemento": 2650,
      "Ġpapel": 2651,
      "Ġemocional": 2652,
      "Ġajustar": 2653,
      "ĠĠĠĠĠĠĠĠĠĠĠĠĠĠĠĠĠĠĠĠĠĠĠĠĠ": 2654,
      "ĠĠĠĠĠĠĠĠĠĠĠĠĠĠĠĠĠĠĠĠĠĠĠĠĠĠ": 2655,
      "Ġdescargar": 2656,
      "ĠniÃ±os": 2657,
      "Ġriesgo": 2658,
      "Ġrequiere": 2659,
      "Ġeficiencia": 2660,
      "\">`": 2661,
      "Ġseleccionados": 2662,
      "Ġdiversas": 2663,
      "Ġgobierno": 2664,
      "Ġhecho": 2665,
      "ĠcÃŃrculo": 2666,
      "ĠfÃ¡cil": 2667,
      "Ġhubiese": 2668,
      "ĠAsegÃºrate": 2669,
      "'s": 2670,
      "60": 2671,
      "Ex": 2672,
      "GBo": 2673,
      "ION": 2674,
      "No": 2675,
      "SE": 2676,
      "etr": 2677,
      "har": 2678,
      "op": 2679,
      "puesta": 2680,
      "tÃ¡n": 2681,
      "uf": 2682,
      "umo": 2683,
      "vo": 2684,
      "Ġ&": 2685,
      "Ġder": 2686,
      "archivo": 2687,
      "eras": 2688,
      "ĠaÃ±o": 2689,
      "undar": 2690,
      "uebas": 2691,
      "input": 2692,
      "ĠmÃ³": 2693,
      "Ġenv": 2694,
      "Ġconf": 2695,
      "Ġconduc": 2696,
      "Ġhe": 2697,
      "ĠheurÃŃstica": 2698,
      "tual": 2699,
      "Ġrela": 2700,
      "Ã©tica": 2701,
      "Ġbreak": 2702,
      "ĠAjus": 2703,
      "Ġaltern": 2704,
      "illa": 2705,
      "Ġpercep": 2706,
      "Ġresistencia": 2707,
      "ivir": 2708,
      "Ã±as": 2709,
      "Ġrom": 2710,
      "ĠTSP": 2711,
      "Ġanti": 2712,
      "apiens": 2713,
      "alizados": 2714,
      "ĠinterÃ©s": 2715,
      "ĠposiciÃ³n": 2716,
      "jetivo": 2717,
      "Ġdeber": 2718,
      "Ġfuncion": 2719,
      "Ġimportantes": 2720,
      "Ġquier": 2721,
      "Ġpasos": 2722,
      "ĠhabÃŃa": 2723,
      "Ġprofunda": 2724,
      "Ġaprender": 2725,
      "Ġefectiva": 2726,
      "Ġinstal": 2727,
      "Ġdivid": 2728,
      "Ġtemas": 2729,
      "ĠespecÃŃficos": 2730,
      "Ġsuperficie": 2731,
      "ĠresoluciÃ³n": 2732,
      "ĠlÃŃneas": 2733,
      "Ġsignificativamente": 2734,
      "Ġinflu": 2735,
      "Ġforz": 2736,
      "Ġadicional": 2737,
      "Ġencuentra": 2738,
      "Ġpapas": 2739,
      "ĠparticipaciÃ³n": 2740,
      "ĠTeorÃŃa": 2741,
      "Ġfamiliar": 2742,
      "Ġcircular": 2743,
      "Ġoriginal": 2744,
      "Ġpalabra": 2745,
      "Ġsorpresa": 2746,
      "ĠDesarrollo": 2747,
      "Ġpredecir": 2748,
      "Ġaleator": 2749,
      "Ġfisioterap": 2750,
      "Ã³rmula": 2751,
      "GBoost": 2752,
      "\")": 2753,
      "Hola": 2754,
      "gado": 2755,
      "mu": 2756,
      "sta": 2757,
      "ud": 2758,
      "udad": 2759,
      "Ġdemo": 2760,
      "Ġpan": 2761,
      "Ġllen": 2762,
      "Ġluz": 2763,
      "Ġsom": 2764,
      "Ġsosten": 2765,
      "Ġsapiens": 2766,
      "tiendo": 2767,
      "Ġemerg": 2768,
      "ical": 2769,
      "Ġesf": 2770,
      "Ġnaci": 2771,
      "Ġnunca": 2772,
      "Ġfe": 2773,
      "Ġhoy": 2774,
      "ĠEjemplo": 2775,
      "oluc": 2776,
      "Ġreducir": 2777,
      "Ġprovin": 2778,
      "Ġbar": 2779,
      "entemente": 2780,
      "ĠSon": 2781,
      "ienda": 2782,
      "Ġexpan": 2783,
      "Ġtema": 2784,
      "icidad": 2785,
      "Ġseries": 2786,
      "Ġram": 2787,
      "ĠMay": 2788,
      "Ġdific": 2789,
      "tesis": 2790,
      "Ġ50": 2791,
      "Ġtengo": 2792,
      "Ġaspec": 2793,
      "ĠBuen": 2794,
      "dose": 2795,
      "Ġpagar": 2796,
      "Ġcarr": 2797,
      "Ġcapaci": 2798,
      "Ġvalios": 2799,
      "Ġinvoluc": 2800,
      "Ġposibilidad": 2801,
      "ĠrotaciÃ³n": 2802,
      "Ġmenudo": 2803,
      "Ġbasa": 2804,
      "Ġprecio": 2805,
      "Ġprecisa": 2806,
      "Ġidentidad": 2807,
      "ĠProporcion": 2808,
      "ĠmÃ¡qu": 2809,
      "Ġdirectamente": 2810,
      "euronales": 2811,
      "ĠPuede": 2812,
      "Ġcorrecta": 2813,
      "ĠpolÃŃtica": 2814,
      "ĠPrim": 2815,
      "Ġhiper": 2816,
      "Ġclase": 2817,
      "ĠnumÃ©r": 2818,
      "Ġherramientas": 2819,
      "Ġthis": 2820,
      "Ġdigital": 2821,
      "ĠConsideraciones": 2822,
      "ĠArgentina": 2823,
      "ĠgeogrÃ¡ficas": 2824,
      "Ġlaboral": 2825,
      "ĠmÃºsicos": 2826,
      "Ġsoftware": 2827,
      "Ġsatisf": 2828,
      "-|": 2829,
      ".,": 2830,
      "80": 2831,
      "ED": 2832,
      "Error": 2833,
      "Im": 2834,
      "ear": 2835,
      "ejo": 2836,
      "itivos": 2837,
      "pciÃ³n": 2838,
      "sec": 2839,
      "tados": 2840,
      "uro": 2841,
      "Â¿": 2842,
      "Ġpie": 2843,
      "Ġlit": 2844,
      "aron": 2845,
      "Ġcm": 2846,
      "Ġclaro": 2847,
      "ere": 2848,
      "eros": 2849,
      "tis": 2850,
      "una": 2851,
      "und": 2852,
      "Ġincorpor": 2853,
      "Ġfl": 2854,
      "Ġfir": 2855,
      "imos": 2856,
      "Ġrele": 2857,
      "Ã©cnicas": 2858,
      "Ġbeb": 2859,
      "ĠLu": 2860,
      "ĠCas": 2861,
      "ĠCre": 2862,
      "aban": 2863,
      "Ġsuficiente": 2864,
      "Ġ28": 2865,
      "Ġcompati": 2866,
      "uma": 2867,
      "ieron": 2868,
      "ĠMÃ©": 2869,
      "Ġante": 2870,
      "Ġanim": 2871,
      "Ġmotiv": 2872,
      "Ġprobable": 2873,
      "plicador": 2874,
      "Ã¡nd": 2875,
      "ĠHeurÃŃstica": 2876,
      "Ġcompleta": 2877,
      "clas": 2878,
      "ĠformaciÃ³n": 2879,
      "paraciÃ³n": 2880,
      "Ġcomplejas": 2881,
      "carse": 2882,
      "ĠConfig": 2883,
      "Ġfuncional": 2884,
      "Ġabs": 2885,
      "Ġpasado": 2886,
      "ĠpresiÃ³n": 2887,
      "Ġselecciones": 2888,
      "Ġincluir": 2889,
      "Ġincluso": 2890,
      "Ġpermitir": 2891,
      "olÃ³gicas": 2892,
      "olÃ³gico": 2893,
      "Ġsecundar": 2894,
      "Ġinfluy": 2895,
      "Ġ//": 2896,
      "Ġprome": 2897,
      "Ġtareas": 2898,
      "Ġcorrecto": 2899,
      "ĠYo": 2900,
      "mites": 2901,
      "Ġfalta": 2902,
      "uelve": 2903,
      "ocum": 2904,
      "Ġherm": 2905,
      "Ġpalabras": 2906,
      "Ġconvier": 2907,
      "Ġviaj": 2908,
      "Ġoportunidades": 2909,
      "ĠAlgunos": 2910,
      "celente": 2911,
      "ĠValidaciÃ³n": 2912,
      "Ġgaranti": 2913,
      "ĠpoblaciÃ³n": 2914,
      "macen": 2915,
      "ĠDatos": 2916,
      "50": 2917,
      "LA": 2918,
      "MAC": 2919,
      "Res": 2920,
      "SI": 2921,
      "WS": 2922,
      "`.": 2923,
      "fÃŃa": 2924,
      "gra": 2925,
      "iamente": 2926,
      "sha": 2927,
      "ts": 2928,
      "tÃ¡": 2929,
      "Ġol": 2930,
      "Ġpygame": 2931,
      "cial": 2932,
      "Ġcen": 2933,
      "Ġcum": 2934,
      "eron": 2935,
      "ander": 2936,
      "ĠmÃŃn": 2937,
      "acias": 2938,
      "Ġeso": 2939,
      "Ġesti": 2940,
      "Ġella": 2941,
      "Ġconqu": 2942,
      "Ġnacional": 2943,
      "Ġfre": 2944,
      "Ġfom": 2945,
      "imit": 2946,
      "Ġhombre": 2947,
      "Ġsex": 2948,
      "Ġocur": 2949,
      "ĠvÃŃ": 2950,
      "Ġ--": 2951,
      "ĠAWS": 2952,
      "Ġalgu": 2953,
      "ĠPab": 2954,
      "Ġ100": 2955,
      "ĠCo": 2956,
      "ĠCor": 2957,
      "Ġsuma": 2958,
      "moder": 2959,
      "ĠEsper": 2960,
      "Ġpreocu": 2961,
      "Ġnodos": 2962,
      "porte": 2963,
      "iciones": 2964,
      "Ġren": 2965,
      "ĠTo": 2966,
      "mag": 2967,
      "ĠtenÃŃa": 2968,
      "Ġ`<": 2969,
      "Ġcampos": 2970,
      "ĠAnd": 2971,
      "ĠGes": 2972,
      "peti": 2973,
      "Ġcarta": 2974,
      "Ġcarga": 2975,
      "uerra": 2976,
      "ĠcalorÃŃas": 2977,
      "Ġcrecimiento": 2978,
      "Ġpredicciones": 2979,
      "itario": 2980,
      "Ġquer": 2981,
      "patibilidad": 2982,
      "tificar": 2983,
      "Ġcomunes": 2984,
      "ĠmÃ©tr": 2985,
      "ĠVer": 2986,
      "Ġvariar": 2987,
      "flic": 2988,
      "Ġefectivo": 2989,
      "Ġcolabor": 2990,
      "Ġfuturas": 2991,
      "Ġcombinaciones": 2992,
      "Ġprincipales": 2993,
      "Ġniveles": 2994,
      "Ġpesar": 2995,
      "Ġafectar": 2996,
      "ĠlÃŃmites": 2997,
      "Ġresponder": 2998,
      "Ġneander": 2999,
      "ĠpequeÃ±o": 3000,
      "grÃ¡fica": 3001,
      "Ġinteresante": 3002,
      "Ġriesgos": 3003,
      "Ġdemuestra": 3004,
      "Ġpaciente": 3005,
      "Ġherramienta": 3006,
      "Ġlimitaciones": 3007,
      "Ġescenarios": 3008,
      "Ġmanzana": 3009,
      "ĠmÃ©dico": 3010,
      "Ġprivacidad": 3011,
      "unciado": 3012,
      "ĠconexiÃ³n": 3013,
      "ĠprÃ³ximo": 3014,
      "Ġbayesiana": 3015,
      "Ġtransi": 3016,
      "completos": 3017,
      "uffer": 3018,
      "ĠmÃ³vil": 3019,
      "Ġalguien": 3020,
      "ĠPablo": 3021,
      "Ġneandertales": 3022,
      "Claro": 3023,
      "De": 3024,
      "IC": 3025,
      "ezas": 3026,
      "etel": 3027,
      "fÃ©": 3028,
      "her": 3029,
      "js": 3030,
      "ks": 3031,
      "lf": 3032,
      "lab": 3033,
      "net": 3034,
      "pend": 3035,
      "rir": 3036,
      "sidad": 3037,
      "enes": 3038,
      "ĠpÃ©r": 3039,
      "Ġprac": 3040,
      "erir": 3041,
      "onas": 3042,
      "Ġspe": 3043,
      "Ġaf": 3044,
      "tiÃ³": 3045,
      "Ġequ": 3046,
      "Ġefic": 3047,
      "ĠyÃ©": 3048,
      "ish": 3049,
      "Ġdu": 3050,
      "ĠfÃ³rmula": 3051,
      "Ġself": 3052,
      "Ġcomerci": 3053,
      "Ġrecu": 3054,
      "Ã©tico": 3055,
      "Ġterr": 3056,
      "Ġall": 3057,
      "ĠLSTM": 3058,
      "itmo": 3059,
      "Ġgo": 3060,
      "quÃ©": 3061,
      "Ġextracto": 3062,
      "Ġserie": 3063,
      "ĠTem": 3064,
      "Ġansi": 3065,
      "apar": 3066,
      "Ġacer": 3067,
      "ĠDi": 3068,
      "adoras": 3069,
      "tilla": 3070,
      "ĠNÃºmer": 3071,
      "Ġdispos": 3072,
      "Ġinterac": 3073,
      "Ġnecesitar": 3074,
      "quipo": 3075,
      "parÃ¡metros": 3076,
      "Ġrespuestas": 3077,
      "como": 3078,
      "Ġhabr": 3079,
      "Ġcambi": 3080,
      "Ġwith": 3081,
      "Ġtransla": 3082,
      "Ġinspir": 3083,
      "Ġcolores": 3084,
      "Ġnav": 3085,
      "ĠExplicaciÃ³n": 3086,
      "Ġactuales": 3087,
      "Ġbuscando": 3088,
      "Ġcontinua": 3089,
      "Ġcoste": 3090,
      "Ġafectan": 3091,
      "ĠlÃŃmite": 3092,
      "ĠPredic": 3093,
      "ĠelecciÃ³n": 3094,
      "Ġofrecer": 3095,
      "ĠPrincip": 3096,
      "Ġadecuada": 3097,
      "Ġaumentar": 3098,
      "olucion": 3099,
      "Ġnormal": 3100,
      "Ġconvertir": 3101,
      "Ġreflej": 3102,
      "Ġpacientes": 3103,
      "ĠPatrones": 3104,
      "ĠÃ¡rboles": 3105,
      "Ġmercado": 3106,
      "Ġcorreo": 3107,
      "Ġtrabajar": 3108,
      "ĠMonte": 3109,
      "Ġcenso": 3110,
      "Ġempresas": 3111,
      "ÃŃgitos": 3112,
      "Ġrutas": 3113,
      "ĠPrimero": 3114,
      "Ġpromedio": 3115,
      "Ġhermano": 3116,
      "MACEN": 3117,
      "ĠyÃ©etel": 3118,
      "Ac": 3119,
      "Ob": 3120,
      "Pr": 3121,
      "RE": 3122,
      "Un": 3123,
      "centr": 3124,
      "dimiento": 3125,
      "gum": 3126,
      "hor": 3127,
      "ion": 3128,
      "nas": 3129,
      "puesto": 3130,
      "udi": 3131,
      "zaciÃ³n": 3132,
      "ĠÎ": 3133,
      "Ġpadre": 3134,
      "cio": 3135,
      "Ġli": 3136,
      "Ġluego": 3137,
      "onos": 3138,
      "onentes": 3139,
      "uela": 3140,
      "Ġmues": 3141,
      "ted": 3142,
      "icar": 3143,
      "icÃ©": 3144,
      "oma": 3145,
      "omas": 3146,
      "Ġconci": 3147,
      "ĠcontribuciÃ³n": 3148,
      "Ġdimen": 3149,
      "Ġfecha": 3150,
      "imin": 3151,
      "Ġreales": 3152,
      "Ġvent": 3153,
      "Ġtasas": 3154,
      "Ġaltos": 3155,
      "raestruc": 3156,
      "idado": 3157,
      "ila": 3158,
      "ĠCl": 3159,
      "ĠSeg": 3160,
      "Ġ25": 3161,
      "Ġdesem": 3162,
      "Ġdesvi": 3163,
      "Ġtime": 3164,
      "ĠimpresiÃ³n": 3165,
      "ĠImag": 3166,
      "ĠTÃ©cnicas": 3167,
      "iera": 3168,
      "ieren": 3169,
      "ĠMi": 3170,
      "ĠRust": 3171,
      "Ġarm": 3172,
      "Ã¡ndo": 3173,
      "Ġsigue": 3174,
      "troducciÃ³n": 3175,
      "ensa": 3176,
      "ĠGener": 3177,
      "Ġmate": 3178,
      "Ġnecesidad": 3179,
      "Ġleer": 3180,
      "pez": 3181,
      "ugadores": 3182,
      "Ġoptim": 3183,
      "Ġcria": 3184,
      "tabilidad": 3185,
      "ĠquÃŃ": 3186,
      "Ġhablar": 3187,
      "Ġprofundas": 3188,
      "ĠâĢ": 3189,
      "Ġpropia": 3190,
      "ĠraÃŃz": 3191,
      "Inter": 3192,
      "Ġamor": 3193,
      "Ġrealidad": 3194,
      "ĠproducciÃ³n": 3195,
      "plemente": 3196,
      "Ġinfluir": 3197,
      "ftp": 3198,
      "Ġrepresenta": 3199,
      "Ġusuario": 3200,
      "Ġespacios": 3201,
      "ĠeconÃ³micos": 3202,
      "Ġmeses": 3203,
      "ĠCarlo": 3204,
      "ĠteÃ³rica": 3205,
      "ĠÃ³ptimas": 3206,
      "Ġoperaciones": 3207,
      "ckcha": 3208,
      "Ġmaterial": 3209,
      "Ġmateriales": 3210,
      "Ġbeneficios": 3211,
      "ĠIncorporaciÃ³n": 3212,
      "Ġindepen": 3213,
      "Ġsolicitud": 3214,
      "ALMACEN": 3215,
      "Ġrango": 3216,
      "Ġplataformas": 3217,
      "Ġglobal": 3218,
      "Ġmedidas": 3219,
      "ĠRefactor": 3220,
      "etrÃŃa": 3221,
      "Ġaspectos": 3222,
      "ĠProporciona": 3223,
      "ckchain": 3224,
      "('": 3225,
      "(-": 3226,
      ".\"**": 3227,
      "COMP": 3228,
      "DF": 3229,
      "HA": 3230,
      "ba": 3231,
      "ber": 3232,
      "cusiÃ³n": 3233,
      "dÃŃa": 3234,
      "dica": 3235,
      "duros": 3236,
      "frec": 3237,
      "ml": 3238,
      "out": 3239,
      "rentes": 3240,
      "ÇĴ": 3241,
      "ĠÏ": 3242,
      "Ġdepend": 3243,
      "ĠlÃ³g": 3244,
      "Ġagu": 3245,
      "Ġahora": 3246,
      "Ġaire": 3247,
      "redientes": 3248,
      "ancia": 3249,
      "ingun": 3250,
      "Ã³nico": 3251,
      "Ġese": 3252,
      "quel": 3253,
      "tren": 3254,
      "Ġellos": 3255,
      "Ġconec": 3256,
      "Ġconflic": 3257,
      "leib": 3258,
      "Ġdia": 3259,
      "Ġdocum": 3260,
      "Ġines": 3261,
      "Ġinmedi": 3262,
      "Ġfras": 3263,
      "Ġftp": 3264,
      "Ġbrom": 3265,
      "Ġblan": 3266,
      "toster": 3267,
      "ight": 3268,
      "ĠCrea": 3269,
      "Ġgen": 3270,
      "ulo": 3271,
      "ulario": 3272,
      "Ġ21": 3273,
      "Ġexplic": 3274,
      "Ġexistencia": 3275,
      "Ġexistentes": 3276,
      "Ġdescon": 3277,
      "log": 3278,
      "Ġmetros": 3279,
      "irse": 3280,
      "Ġja": 3281,
      "Ġjunto": 3282,
      "adora": 3283,
      "ĠestÃ©": 3284,
      "ĠestÃ©n": 3285,
      "Ġarr": 3286,
      "ĠFED": 3287,
      "Ġsitio": 3288,
      "Ġdistrib": 3289,
      "press": 3290,
      "Ġtendencia": 3291,
      "ĠBus": 3292,
      "duce": 3293,
      "ĠevoluciÃ³n": 3294,
      "Ġobra": 3295,
      "Ġpaque": 3296,
      "Ġpatr": 3297,
      "talla": 3298,
      "Ġmagn": 3299,
      "Ġletra": 3300,
      "ĠSelec": 3301,
      "Ġutilizan": 3302,
      "Ġdiferente": 3303,
      "Ġcompleja": 3304,
      "Ġfunciones": 3305,
      "Ġejec": 3306,
      "Ġsimplemente": 3307,
      "ĠOr": 3308,
      "Ġcase": 3309,
      "actores": 3310,
      "Ġ99": 3311,
      "Ġtrata": 3312,
      "Ġfuentes": 3313,
      "Ġadaptarse": 3314,
      "finiciÃ³n": 3315,
      "Ġobjeto": 3316,
      "ervicios": 3317,
      "Ġprincipio": 3318,
      "Ġprincipios": 3319,
      "Ġsignificativa": 3320,
      "Ġingres": 3321,
      "Ġingredientes": 3322,
      "Ġmuchas": 3323,
      "Ġincluyen": 3324,
      "Ġavanzados": 3325,
      "ĠeconomÃŃa": 3326,
      "Ġpeso": 3327,
      "Ġestable": 3328,
      "Ġactividad": 3329,
      "Ġsentim": 3330,
      "Ġencuentr": 3331,
      "ĠpequeÃ±os": 3332,
      "Ġlibre": 3333,
      "Ġpensamiento": 3334,
      "Ġautomati": 3335,
      "ĠdinÃ¡mica": 3336,
      "ĠfÃŃsica": 3337,
      "Ġadminis": 3338,
      "Ġfamilia": 3339,
      "Ġbuena": 3340,
      "Ġrazones": 3341,
      "Ġrefleja": 3342,
      "Ġexperimentar": 3343,
      "Ġinfraestruc": 3344,
      "Ġdisponibles": 3345,
      "ĠconfiguraciÃ³n": 3346,
      "Ġelegir": 3347,
      "www": 3348,
      "Ġsaber": 3349,
      "CuÃ¡l": 3350,
      "ĠMejora": 3351,
      "Ġtestoster": 3352,
      "Ġexhaustiva": 3353,
      "Ġejercicios": 3354,
      "Ġstring": 3355,
      "Ġesenciales": 3356,
      "Ġconsecuencias": 3357,
      "Ġmanejar": 3358,
      "Ġdetallada": 3359,
      "Ġinfluencia": 3360,
      "Ġramas": 3361,
      "Ġconvierte": 3362,
      "Ġfrecu": 3363,
      "Ġpreocup": 3364,
      "label": 3365,
      "ĠTempor": 3366,
      "Ġnaveg": 3367,
      "leibol": 3368,
      "Ġtestosterona": 3369,
      "::": 3370,
      "?\"": 3371,
      "Al": 3372,
      "Buen": 3373,
      "Py": 3374,
      "VR": 3375,
      "`,": 3376,
      "`:": 3377,
      "at": 3378,
      "etas": 3379,
      "for": 3380,
      "fil": 3381,
      "hp": 3382,
      "ionar": 3383,
      "paces": 3384,
      "ser": 3385,
      "strucciÃ³n": 3386,
      "uido": 3387,
      "we": 3388,
      "Ġ:": 3389,
      "deo": 3390,
      "dero": 3391,
      "Ġlista": 3392,
      "arias": 3393,
      "Ġcent": 3394,
      "ash": 3395,
      "onente": 3396,
      "Ã³s": 3397,
      "adÃ©": 3398,
      "anidad": 3399,
      "inci": 3400,
      "teza": 3401,
      "teca": 3402,
      "Ġens": 3403,
      "Ġenfer": 3404,
      "ices": 3405,
      "Ġesa": 3406,
      "istic": 3407,
      "Ġconsidera": 3408,
      "Ġnp": 3409,
      "Ġneuronales": 3410,
      "ĠdÃŃgitos": 3411,
      "Ġfil": 3412,
      "ime": 3413,
      "Ġsepar": 3414,
      "Ġreempl": 3415,
      "entÃ³": 3416,
      "ĠArag": 3417,
      "Ġtor": 3418,
      "encil": 3419,
      "ige": 3420,
      "abe": 3421,
      "abil": 3422,
      "Ġ23": 3423,
      "Ġexac": 3424,
      "Ġcompr": 3425,
      "---|": 3426,
      "umas": 3427,
      "Ġpoema": 3428,
      "Ġlove": 3429,
      "ĠTras": 3430,
      "ĠMan": 3431,
      "Ġanteri": 3432,
      "Ġjuntos": 3433,
      "ĠacciÃ³n": 3434,
      "Ġtutor": 3435,
      "ajes": 3436,
      "Ġestados": 3437,
      "ĠNum": 3438,
      "Ġmanten": 3439,
      "ifica": 3440,
      "Ġinterna": 3441,
      "Ġinterru": 3442,
      "ĠHa": 3443,
      "Ġpositivo": 3444,
      "Ġcorta": 3445,
      "Ġcompleto": 3446,
      "Ġgrado": 3447,
      "Ġciudad": 3448,
      "uerzo": 3449,
      "ĠĠĠĠĠĠĠĠĠĠĠĠĠĠĠĠĠĠĠĠĠĠĠĠĠĠĠĠĠĠĠĠ": 3450,
      "Ġimport": 3451,
      "Ġdiferencias": 3452,
      "ĠvalidaciÃ³n": 3453,
      "ube": 3454,
      "Ġcoti": 3455,
      "Ġaplicar": 3456,
      "Ġrefiere": 3457,
      "Ġpresenta": 3458,
      "Ġcomunitar": 3459,
      "Ġdesarroll": 3460,
      "Ġbasado": 3461,
      "ĠVivir": 3462,
      "Ġregis": 3463,
      "Ġhumano": 3464,
      "Ġinstitu": 3465,
      "Ġprimera": 3466,
      "Ġaprov": 3467,
      "Ġsignificativos": 3468,
      "Ġintegrales": 3469,
      "Ġingle": 3470,
      "Ġbuscar": 3471,
      "Ġprompt": 3472,
      "rafos": 3473,
      "Ġsegundos": 3474,
      "Ġminuto": 3475,
      "Ġhistorias": 3476,
      "Ġinicial": 3477,
      "Ġfuego": 3478,
      "ĠvisiÃ³n": 3479,
      "Ġadecuado": 3480,
      "ĠCuota": 3481,
      "ENT": 3482,
      "Ġperspectivas": 3483,
      "tions": 3484,
      "Ġdepende": 3485,
      "ĠrazÃ³n": 3486,
      "ĠÃĹ": 3487,
      "https": 3488,
      "ĠImplementaciÃ³n": 3489,
      "Ġbrin": 3490,
      "ĠpaÃŃses": 3491,
      "Ġnecesitas": 3492,
      "Ġeficientes": 3493,
      "Ġsimilares": 3494,
      "Ġbibliotecas": 3495,
      "ĠcrÃŃtica": 3496,
      "ĠAlgunas": 3497,
      "Ġderechos": 3498,
      "Ġlograr": 3499,
      "Ġtradicional": 3500,
      "ĠhÃŃbr": 3501,
      "ĠAmÃ©rica": 3502,
      "ĠGranada": 3503,
      "Ġreconocimiento": 3504,
      "Ġagregar": 3505,
      "Ġwhile": 3506,
      "Ġfortalezas": 3507,
      "Ġfunciona": 3508,
      "ĠLuis": 3509,
      "ĠCastilla": 3510,
      "Ġcumpl": 3511,
      "ĠpÃ©rdida": 3512,
      "Ġansiedad": 3513,
      "Ã¡ndote": 3514,
      "Ġcriaturas": 3515,
      "Ġenferme": 3516,
      "(_": 3517,
      "AI": 3518,
      "FIC": 3519,
      "OR": 3520,
      "PT": 3521,
      "agen": 3522,
      "bil": 3523,
      "ey": 3524,
      "fes": 3525,
      "gÃºn": 3526,
      "gular": 3527,
      "grafÃŃa": 3528,
      "jec": 3529,
      "ly": 3530,
      "nombre": 3531,
      "pes": 3532,
      "php": 3533,
      "tÃ³": 3534,
      "tando": 3535,
      "viv": 3536,
      "Ġ...": 3537,
      "İ¯": 3538,
      "ded": 3539,
      "endar": 3540,
      "esiÃ³n": 3541,
      "osque": 3542,
      "ciales": 3543,
      "asis": 3544,
      "Ġsan": 3545,
      "Ġsiendo": 3546,
      "ĠsÃ³l": 3547,
      "Ġsencil": 3548,
      "Ġav": 3549,
      "Ġaquel": 3550,
      "ticia": 3551,
      "Ã³tesis": 3552,
      "Ġecos": 3553,
      "antas": 3554,
      "ines": 3555,
      "Ġmal": 3556,
      "Ġentonces": 3557,
      "Ġescribir": 3558,
      "omend": 3559,
      "ÃŃtu": 3560,
      "ÃŃmetros": 3561,
      "idamente": 3562,
      "Ġinher": 3563,
      "Ġparece": 3564,
      "Ġhuev": 3565,
      "tum": 3566,
      "ĠEquipo": 3567,
      "olÃŃ": 3568,
      "Ġretro": 3569,
      "Ġreco": 3570,
      "Ã©l": 3571,
      "Ġocul": 3572,
      "ustificaciÃ³n": 3573,
      "Ġbil": 3574,
      "cuitos": 3575,
      "ĠPar": 3576,
      "ĠPero": 3577,
      "ĠPaso": 3578,
      "encial": 3579,
      "ĠCVR": 3580,
      "ĠSus": 3581,
      "ĠSpaces": 3582,
      "Ġsuces": 3583,
      "ticar": 3584,
      "ĠĠĠĠĠĠĠĠĠĠ": 3585,
      "activo": 3586,
      "Ġexten": 3587,
      "Ġexiste": 3588,
      "Ġcompeti": 3589,
      "Ġpercib": 3590,
      "dente": 3591,
      "Ġpueda": 3592,
      "ioja": 3593,
      "Ġimagen": 3594,
      "Ġcuanto": 3595,
      "Ã±ar": 3596,
      "ĠTur": 3597,
      "cionamiento": 3598,
      "Ġacel": 3599,
      "ĠacadÃ©": 3600,
      "Ġdial": 3601,
      "Ġdieta": 3602,
      "aja": 3603,
      "alizadas": 3604,
      "ĠFin": 3605,
      "Ġdiscur": 3606,
      "Ġdistancia": 3607,
      "ÃŃstico": 3608,
      "ĠBo": 3609,
      "Ġposi": 3610,
      "cho": 3611,
      "Ġconsumo": 3612,
      "Ġevento": 3613,
      "Ġsustancias": 3614,
      "Ġoponente": 3615,
      "Ġformulario": 3616,
      "Ġcomplejo": 3617,
      "vedad": 3618,
      "Ġsimpl": 3619,
      "ografÃŃa": 3620,
      "Ġbasada": 3621,
      "ipulaciÃ³n": 3622,
      "ipÃ³tesis": 3623,
      "Ġcolor": 3624,
      "Ġconsiderando": 3625,
      "Ġcombinar": 3626,
      "ologÃŃas": 3627,
      "ConclusiÃ³n": 3628,
      "Ġdescuentos": 3629,
      "ĠPregunta": 3630,
      "Ġiniciales": 3631,
      "Ġdetalles": 3632,
      "ĠmultiplicaciÃ³n": 3633,
      "Ġofrecen": 3634,
      "Ġconocido": 3635,
      "Ġconocimiento": 3636,
      "Ġambiental": 3637,
      "ĠeconÃ³mico": 3638,
      "Ġmomentos": 3639,
      "vistas": 3640,
      "Ġmilitarismo": 3641,
      "Ġorigen": 3642,
      "ĠImplementar": 3643,
      "Ġirre": 3644,
      "Ġnuestro": 3645,
      "ĠreflexiÃ³n": 3646,
      "Ġoportunidad": 3647,
      "ĠUtiliza": 3648,
      "ĠcÃ¡lculo": 3649,
      "Ġtabla": 3650,
      "ĠalimentaciÃ³n": 3651,
      "Ġtradicionales": 3652,
      "Ġuniforme": 3653,
      "Ġrecordar": 3654,
      "Ġprobablemente": 3655,
      "Ġrefinamiento": 3656,
      "Ġalcanzar": 3657,
      "ĠdifÃŃcil": 3658,
      "ĠsatisfacciÃ³n": 3659,
      "Ġestilo": 3660,
      "modern": 3661,
      "ĠEspero": 3662,
      "Ġdimensiones": 3663,
      "Ġpaquete": 3664,
      "ĠpatrÃ³n": 3665,
      "Ġencuentran": 3666,
      "Ġcotidi": 3667,
      "Ġaprovec": 3668,
      "HE": 3669,
      "Me": 3670,
      "Pa": 3671,
      "but": 3672,
      "cm": 3673,
      "col": 3674,
      "dy": 3675,
      "fistic": 3676,
      "itu": 3677,
      "iÃ©n": 3678,
      "ment": 3679,
      "ner": 3680,
      "pie": 3681,
      "su": 3682,
      "tÃŃa": 3683,
      "tÃºa": 3684,
      "uos": 3685,
      "uan": 3686,
      "Â³": 3687,
      "âİ¯": 3688,
      "ĠQ": 3689,
      "ĠQu": 3690,
      "osting": 3691,
      "ciente": 3692,
      "Ġluc": 3693,
      "erte": 3694,
      "astre": 3695,
      "ondos": 3696,
      "Ġatr": 3697,
      "oria": 3698,
      "unidad": 3699,
      "and": 3700,
      "inos": 3701,
      "incl": 3702,
      "Ġmuestra": 3703,
      "Ġesos": 3704,
      "Ġescal": 3705,
      "ÃŃp": 3706,
      "ÃŃci": 3707,
      "isitos": 3708,
      "Ġele": 3709,
      "Ġningun": 3710,
      "Ġfile": 3711,
      "Ġpartir": 3712,
      "ĠparÃ¡metros": 3713,
      "Ġsem": 3714,
      "Ġrepeti": 3715,
      "amen": 3716,
      "amentos": 3717,
      "ecen": 3718,
      "ĠAmb": 3719,
      "ĠLuego": 3720,
      "ĠPla": 3721,
      "ĠPers": 3722,
      "play": 3723,
      "Ġ(`": 3724,
      "Ġ(âİ¯": 3725,
      "ticamente": 3726,
      "actos": 3727,
      "Ġdesapar": 3728,
      "Ġcomponentes": 3729,
      "Ġperd": 3730,
      "Ġpermit": 3731,
      "dena": 3732,
      "dadero": 3733,
      "ivos": 3734,
      "Ġtel": 3735,
      "uras": 3736,
      "icio": 3737,
      "Ġimpres": 3738,
      "Ġimplica": 3739,
      "Ġcuota": 3740,
      "pera": 3741,
      "ell": 3742,
      "ĠRioja": 3743,
      "Ġanaliz": 3744,
      "aps": 3745,
      "Ġacceso": 3746,
      "Ġtur": 3747,
      "ĠDiv": 3748,
      "Ġmanejo": 3749,
      "ÃŃsticos": 3750,
      "Ġtenido": 3751,
      "Ġposmodern": 3752,
      "ega": 3753,
      "Ġtop": 3754,
      "che": 3755,
      "Ġconsistencia": 3756,
      "ĠAnton": 3757,
      "Ġopin": 3758,
      "entarios": 3759,
      "Ġcruz": 3760,
      "Ġformas": 3761,
      "tables": 3762,
      "Ġfuncionar": 3763,
      "Ġejecu": 3764,
      "Ġimpr": 3765,
      "ied": 3766,
      "Ġhabilidad": 3767,
      "Ġenfoques": 3768,
      "ĠmenÃº": 3769,
      "ĠComple": 3770,
      "ĠCombin": 3771,
      "Ġprecios": 3772,
      "ĠregiÃ³n": 3773,
      "Ġreglas": 3774,
      "ĠmayÃºs": 3775,
      "ĠExpl": 3776,
      "Ġestudios": 3777,
      "Ġcultural": 3778,
      "Ġgrande": 3779,
      "Ġencontr": 3780,
      "Ġdirectorio": 3781,
      "Ġintegrar": 3782,
      "Ġbote": 3783,
      "ĠaproximaciÃ³n": 3784,
      "ĠcomparaciÃ³n": 3785,
      "Ġyour": 3786,
      "Ġcontratos": 3787,
      "Ġpotencialmente": 3788,
      "Ġmultiplicador": 3789,
      "ejos": 3790,
      "Ġhijo": 3791,
      "Ġsaltos": 3792,
      "ĠteÃ³ricos": 3793,
      "Ġasegurando": 3794,
      "Ġprofesionales": 3795,
      "roservicios": 3796,
      "Ġirr": 3797,
      "ĠprogramaciÃ³n": 3798,
      "Ġdisponible": 3799,
      "Ġnecesitan": 3800,
      "Ġrelacionados": 3801,
      "âĢĵ": 3802,
      "Ġcurso": 3803,
      "Ġviaje": 3804,
      "ĠpreparaciÃ³n": 3805,
      "Ġescenario": 3806,
      "ĠrÃ¡pidamente": 3807,
      "ACION": 3808,
      "ĠelÃ©ctrica": 3809,
      "ĠcÃ¡lculos": 3810,
      "Ġentrenador": 3811,
      "print": 3812,
      "ĠbÃ¡sico": 3813,
      "Ġcuadrado": 3814,
      "ĠÃ³ptima": 3815,
      "Ġmasa": 3816,
      "ĠhÃŃdr": 3817,
      "Ġvoleibol": 3818,
      "Ġrecibir": 3819,
      "ĠÃºnico": 3820,
      "Ġflexibilidad": 3821,
      "Ġrequisitos": 3822,
      "Ġmensual": 3823,
      "Ġjusticia": 3824,
      "Ġconsultar": 3825,
      "Ġdescubrimiento": 3826,
      "Ġindustria": 3827,
      "Ġerrores": 3828,
      "Ġacuer": 3829,
      "Ġindicar": 3830,
      "Ġpropiedades": 3831,
      "Ġpelig": 3832,
      "Ġestablece": 3833,
      "ĠexpansiÃ³n": 3834,
      "ĠhiperparÃ¡metros": 3835,
      "Ġfuncionalidades": 3836,
      "LASI": 3837,
      "ĠmÃŃnima": 3838,
      "Ġsexual": 3839,
      "ĠallÃ¡": 3840,
      "Ġdesempe": 3841,
      "Ġdependiendo": 3842,
      "ĠlÃ³gica": 3843,
      "Ġinesper": 3844,
      "Ġbromas": 3845,
      "ĠautomatizaciÃ³n": 3846,
      "Ġinfraestructura": 3847,
      "ĠcentÃŃmetros": 3848,
      "ĠAragÃ³n": 3849,
      "FICACION": 3850,
      "button": 3851,
      "Ġposmodernista": 3852,
      "ĠAntonio": 3853,
      "LASIFICACION": 3854,
      "/):": 3855,
      "LSTM": 3856,
      "Op": 3857,
      "Se": 3858,
      "XGBoost": 3859,
      "bar": 3860,
      "buffer": 3861,
      "din": 3862,
      "fa": 3863,
      "fasis": 3864,
      "gadas": 3865,
      "iado": 3866,
      "jugadores": 3867,
      "ok": 3868,
      "qr": 3869,
      "ruta": 3870,
      "type": 3871,
      "ua": 3872,
      "viendo": 3873,
      "deres": 3874,
      "estas": 3875,
      "Ġpen": 3876,
      "onÃŃa": 3877,
      "Ġaven": 3878,
      "ore": 3879,
      "Ã³si": 3880,
      "alel": 3881,
      "Ġmec": 3882,
      "Ġmutu": 3883,
      "Ġense": 3884,
      "ich": 3885,
      "Ġunidades": 3886,
      "Ġconta": 3887,
      "Ġcontras": 3888,
      "Ġcontem": 3889,
      "tografÃŃa": 3890,
      "tag": 3891,
      "Ġnu": 3892,
      "ĠdÃ©": 3893,
      "ĠfâĤĻ": 3894,
      "Ġpares": 3895,
      "Ġhog": 3896,
      "ĠhipÃ³tesis": 3897,
      "ture": 3898,
      "Ġrealmente": 3899,
      "Ã©f": 3900,
      "Ġva": 3901,
      "Ġvs": 3902,
      "Ġvac": 3903,
      "Ġprogres": 3904,
      "Ġby": 3905,
      "ĠalgÃºn": 3906,
      "iga": 3907,
      "ĠCol": 3908,
      "ĠClaro": 3909,
      "Ġsuerte": 3910,
      "ack": 3911,
      "Ġexit": 3912,
      "Ġexcelente": 3913,
      "dir": 3914,
      "direc": 3915,
      "Ġdescrib": 3916,
      "Ġcomplem": 3917,
      "ĠEstudi": 3918,
      "ivo": 3919,
      "Ġteorema": 3920,
      "Ġimpos": 3921,
      "ĠserÃ¡": 3922,
      "ĠcuÃ¡l": 3923,
      "Ġcuesti": 3924,
      "Ġrig": 3925,
      "Ġrama": 3926,
      "Ġritmo": 3927,
      "Ġsofistic": 3928,
      "ĠTer": 3929,
      "derr": 3930,
      "peraciÃ³n": 3931,
      "ierto": 3932,
      "Ġ||": 3933,
      "Ġjo": 3934,
      "Ġactiva": 3935,
      "ĠDeb": 3936,
      "Ġargum": 3937,
      "ĠNash": 3938,
      "ĠFal": 3939,
      "Ã¡ndose": 3940,
      "Ġdisf": 3941,
      "Ġdiscu": 3942,
      "Ġases": 3943,
      "Ġinternos": 3944,
      "ĠinteracciÃ³n": 3945,
      "ĠintervenciÃ³n": 3946,
      "ĠHay": 3947,
      "ĠHomo": 3948,
      "Ġtoque": 3949,
      "Ġtoda": 3950,
      "eratura": 3951,
      "Ġmejores": 3952,
      "trop": 3953,
      "Ġobten": 3954,
      "Ġsong": 3955,
      "ĠGPT": 3956,
      "Ġciencia": 3957,
      "Ġcapital": 3958,
      "quiÃ©n": 3959,
      "ĠclÃ¡s": 3960,
      "Ġsimples": 3961,
      "Ġsimulaciones": 3962,
      "ĠInter": 3963,
      "Ġenfoc": 3964,
      "ĠAlgorit": 3965,
      "Ġpresentar": 3966,
      "Ġmedios": 3967,
      "Ġtama": 3968,
      "Ġtaza": 3969,
      "Ġexplora": 3970,
      "ĠJul": 3971,
      "ĠJuan": 3972,
      "Ġalguna": 3973,
      "Ġplay": 3974,
      "Ġtratamiento": 3975,
      "Ġhumanidad": 3976,
      "Ġproporcionados": 3977,
      "Ġavance": 3978,
      "ĠmayorÃŃa": 3979,
      "edro": 3980,
      "entren": 3981,
      "Ġrecurrentes": 3982,
      "Ġsaludable": 3983,
      "Ġaproximada": 3984,
      "Ġestructuras": 3985,
      "azÃ³n": 3986,
      "Ġfueron": 3987,
      "Ġpesa": 3988,
      "Ġcorrectamente": 3989,
      "Ġestabilidad": 3990,
      "ĠDetal": 3991,
      "ĠimplementaciÃ³n": 3992,
      "Ġdetallado": 3993,
      "Ġconocimientos": 3994,
      "ĠWord": 3995,
      "Ġiter": 3996,
      "ĠeconÃ³mica": 3997,
      "stderr": 3998,
      "produc": 3999,
      "Ġcontextos": 4000,
      "Ġpensar": 4001,
      "Ġaumento": 4002,
      "Ġprintf": 4003,
      "valuaciÃ³n": 4004,
      "âĢ¦": 4005,
      "Ġnuestras": 4006,
      "Ġreflexionar": 4007,
      "Ġleyes": 4008,
      "Ġcentral": 4009,
      "Ġbiblioteca": 4010,
      "Ġbaja": 4011,
      "ĠbalÃ³n": 4012,
      "ĠdemostraciÃ³n": 4013,
      "ertad": 4014,
      "Ġfascin": 4015,
      "Ġconjuntos": 4016,
      "ĠEvaluaciÃ³n": 4017,
      "Ġliger": 4018,
      "âģµ": 4019,
      "Ġmicroservicios": 4020,
      "ĠâīĪ": 4021,
      "Ġdestacar": 4022,
      "Ġpromover": 4023,
      "Ġfamiliares": 4024,
      "Ġemergentes": 4025,
      "Ġliteratura": 4026,
      "Ġrelevan": 4027,
      "Ġanimales": 4028,
      "ĠmotivaciÃ³n": 4029,
      "ĠYou": 4030,
      "ĠcolaboraciÃ³n": 4031,
      "ĠmÃ³viles": 4032,
      "Ġspeed": 4033,
      "Ġterritor": 4034,
      "ĠNÃºmeros": 4035,
      "ĠhabrÃŃa": 4036,
      "ĠClima": 4037,
      "ĠdesviaciÃ³n": 4038,
      "Ġinmedia": 4039,
      "Ġblanco": 4040,
      "ĠOrgan": 4041,
      "abetes": 4042,
      "Ġtutoriales": 4043,
      "ÃŃtulo": 4044,
      "Ġhuevo": 4045,
      "Ġninguna": 4046,
      "qrt": 4047,
      "ĠGPTs": 4048,
      "200": 4049,
      "500": 4050,
      "84": 4051,
      "EvaluaciÃ³n": 4052,
      "ID": 4053,
      "PS": 4054,
      "Por": 4055,
      "Reg": 4056,
      "_)**": 4057,
      "`)": 4058,
      "ew": 4059,
      "eÃ±o": 4060,
      "euta": 4061,
      "ger": 4062,
      "habil": 4063,
      "linux": 4064,
      "pong": 4065,
      "python": 4066,
      "sh": 4067,
      "ves": 4068,
      "via": 4069,
      "vestig": 4070,
      "win": 4071,
      "xico": 4072,
      "zos": 4073,
      "zado": 4074,
      "Ã§": 4075,
      "Ãģ": 4076,
      "ĠZ": 4077,
      "Ġiz": 4078,
      "dea": 4079,
      "esta": 4080,
      "Ġpi": 4081,
      "Ġpul": 4082,
      "Ġpier": 4083,
      "ciles": 4084,
      "Ġlun": 4085,
      "Ġlik": 4086,
      "arn": 4087,
      "arte": 4088,
      "Ġcuc": 4089,
      "aste": 4090,
      "onte": 4091,
      "ĠsÃŃn": 4092,
      "Ġado": 4093,
      "tia": 4094,
      "tida": 4095,
      "alea": 4096,
      "adic": 4097,
      "reci": 4098,
      "ant": 4099,
      "anÃ¡lisis": 4100,
      "ink": 4101,
      "inaciÃ³n": 4102,
      "inio": 4103,
      "Ġmadre": 4104,
      "Ġenter": 4105,
      "Ġunidad": 4106,
      "Ã¡ticos": 4107,
      "Ġelse": 4108,
      "Ġcontr": 4109,
      "Ġconform": 4110,
      "ĠconclusiÃ³n": 4111,
      "Ġconocer": 4112,
      "Ġdir": 4113,
      "Ġinus": 4114,
      "Ġfo": 4115,
      "Ġfres": 4116,
      "Ġflo": 4117,
      "Ġpared": 4118,
      "imentaciÃ³n": 4119,
      "Ġhemos": 4120,
      "ĠEcu": 4121,
      "olmo": 4122,
      "Ġremo": 4123,
      "Ġrefer": 4124,
      "entadas": 4125,
      "Ġbre": 4126,
      "Ġalma": 4127,
      "ity": 4128,
      "Ġgl": 4129,
      "ace": 4130,
      "ienes": 4131,
      "emente": 4132,
      "Ġ22": 4133,
      "Ġ200": 4134,
      "Ġextra": 4135,
      "dia": 4136,
      "Ġdese": 4137,
      "dentes": 4138,
      "ĠEstado": 4139,
      "ĠEscribe": 4140,
      "ump": 4141,
      "Ġresto": 4142,
      "ivas": 4143,
      "toria": 4144,
      "ĠRCT": 4145,
      "Ġanterior": 4146,
      "tantes": 4147,
      "ĠtrÃ¡": 4148,
      "Ġdiabetes": 4149,
      "ĠUN": 4150,
      "ayes": 4151,
      "dicamentos": 4152,
      "ĠFord": 4153,
      "Ġdisper": 4154,
      "turadas": 4155,
      "Ġtendr": 4156,
      "ĠtensiÃ³n": 4157,
      "ĠBayes": 4158,
      "ĠHola": 4159,
      "Ġsiglo": 4160,
      "Ġtienden": 4161,
      "ĠconstrucciÃ³n": 4162,
      "Ġevolucion": 4163,
      "fectos": 4164,
      "tallado": 4165,
      "Ġgracias": 4166,
      "gorov": 4167,
      "Ġcapas": 4168,
      "Ġplac": 4169,
      "Ġplumas": 4170,
      "Ġempa": 4171,
      "Ġpredictivo": 4172,
      "Ġpredictibilidad": 4173,
      "Ġclientes": 4174,
      "ĠRedes": 4175,
      "Ġabrir": 4176,
      "Ġabout": 4177,
      "ĠtÃ©cn": 4178,
      "tificada": 4179,
      "ĠInform": 4180,
      "Ġsistem": 4181,
      "Ġposibilidades": 4182,
      "theta": 4183,
      "ĠcafÃ©": 4184,
      "ĠCompar": 4185,
      "ĠJue": 4186,
      "ocial": 4187,
      "Ġtranspar": 4188,
      "Ġregiones": 4189,
      "ĠEstoy": 4190,
      "brir": 4191,
      "Ġmister": 4192,
      "pecta": 4193,
      "Ġverde": 4194,
      "Ġespecific": 4195,
      "Ġpropio": 4196,
      "Ġpropias": 4197,
      "ĠpropÃ³si": 4198,
      "Ġsuperar": 4199,
      "venir": 4200,
      "Ġvideo": 4201,
      "Ġproductos": 4202,
      "ĠImplicaciones": 4203,
      "Ġlleva": 4204,
      "Ġsectores": 4205,
      "Ġcomparar": 4206,
      "Ġincluye": 4207,
      "Ġmarcar": 4208,
      "Ġcerteza": 4209,
      "Ġseguro": 4210,
      "ĠcondiciÃ³n": 4211,
      "ĠtecnologÃŃas": 4212,
      "Ã©ctica": 4213,
      "Ġterap": 4214,
      "Ã¡mara": 4215,
      "Ġestoy": 4216,
      "ĠPotenci": 4217,
      "cripciÃ³n": 4218,
      "Ġsalga": 4219,
      "Ġajustes": 4220,
      "ĠCarlos": 4221,
      "ĠmatemÃ¡tico": 4222,
      "ĠCuando": 4223,
      "Ġinteresantes": 4224,
      "demia": 4225,
      "------------------------": 4226,
      "Ġdefinir": 4227,
      "Ġdinero": 4228,
      "blemas": 4229,
      "Ġamplia": 4230,
      "Ġdependencias": 4231,
      "Ġmusic": 4232,
      "Ġconvers": 4233,
      "ĠAsÃŃ": 4234,
      "ĠnumÃ©rica": 4235,
      "Ġnegra": 4236,
      "imensi": 4237,
      "ujer": 4238,
      "ĠelÃ©ctrico": 4239,
      "Ġdemostrado": 4240,
      "ĠKolmo": 4241,
      "Ġindividuales": 4242,
      "ĠpÃºblico": 4243,
      "Ġmanzanas": 4244,
      "ĠÃ³ptimo": 4245,
      "ombres": 4246,
      "ĠTendencias": 4247,
      "ĠpsicolÃ³gicos": 4248,
      "Ġaluminio": 4249,
      "ĠartÃŃ": 4250,
      "ĠartÃŃsticas": 4251,
      "idente": 4252,
      "Ġconjunto": 4253,
      "Ġmostr": 4254,
      "Pregunta": 4255,
      "ĠCalcula": 4256,
      "Ġblockchain": 4257,
      "Ġdiversos": 4258,
      "ĠdedicaciÃ³n": 4259,
      "ĠguÃŃa": 4260,
      "Ġconstruir": 4261,
      "ĠcientÃŃfica": 4262,
      "Ġprofesores": 4263,
      "ĠpercepciÃ³n": 4264,
      "ĠdeberÃŃa": 4265,
      "Ġforzadas": 4266,
      "Ġfisioterapia": 4267,
      "ĠMayor": 4268,
      "Ġvaliosa": 4269,
      "ĠmÃ¡quinas": 4270,
      "ĠnumÃ©ricas": 4271,
      "Ġcompatibilidad": 4272,
      "class": 4273,
      "ĠConfigura": 4274,
      "Ġinfluyentes": 4275,
      "Ġgarantizar": 4276,
      "ĠmÃ©trica": 4277,
      "Ġtransiciones": 4278,
      "Ġeficaz": 4279,
      "Ġsentimientos": 4280,
      "ĠNumPy": 4281,
      "Ġaquellos": 4282,
      "ĠTuring": 4283,
      "ĠdialÃ©ctica": 4284,
      "include": 4285,
      "Ġpermiten": 4286,
      "ĠmayÃºscula": 4287,
      "Ġfascinante": 4288,
      "habilitaciÃ³n": 4289,
      "Ġcuchar": 4290,
      "Ġevolucionado": 4291,
      "ĠKolmogorov": 4292,
      "$$": 4293,
      "64": 4294,
      "Cr": 4295,
      "Ejemplo": 4296,
      "IT": 4297,
      "OS": 4298,
      "Om": 4299,
      "Or": 4300,
      "Sim": 4301,
      "Seg": 4302,
      "Sistema": 4303,
      "Tu": 4304,
      "UES": 4305,
      "XX": 4306,
      "])": 4307,
      "agan": 4308,
      "bs": 4309,
      "berg": 4310,
      "cla": 4311,
      "camb": 4312,
      "dha": 4313,
      "ff": 4314,
      "fo": 4315,
      "fur": 4316,
      "from": 4317,
      "get": 4318,
      "his": 4319,
      "if": 4320,
      "iaciÃ³n": 4321,
      "itura": 4322,
      "ifl": 4323,
      "madamente": 4324,
      "ste": 4325,
      "tÃ¡mara": 4326,
      "wagan": 4327,
      "Â°": 4328,
      "Ġil": 4329,
      "ĠÃ©n": 4330,
      "dez": 4331,
      "Ġdepor": 4332,
      "Ġpon": 4333,
      "ĠpÃ¡": 4334,
      "Ġll": 4335,
      "Ġsac": 4336,
      "orn": 4337,
      "tien": 4338,
      "ties": 4339,
      "tidades": 4340,
      "alternativas": 4341,
      "reed": 4342,
      "uelas": 4343,
      "ini": 4344,
      "inario": 4345,
      "Ġmem": 4346,
      "Ġestim": 4347,
      "tran": 4348,
      "omen": 4349,
      "Ã¡gen": 4350,
      "Ġcontiene": 4351,
      "todo": 4352,
      "tativos": 4353,
      "Ġdada": 4354,
      "Ġinc": 4355,
      "Ġinfer": 4356,
      "Ġfamos": 4357,
      "Ġfprint": 4358,
      "ĠhÃ¡": 4359,
      "Ġhol": 4360,
      "Ġsecarse": 4361,
      "Ġrealiza": 4362,
      "ĠrehabilitaciÃ³n": 4363,
      "Ġvir": 4364,
      "Ġproteg": 4365,
      "Ġba": 4366,
      "Ġban": 4367,
      "ĠAvan": 4368,
      "ĠtÃŃp": 4369,
      "ĠPl": 4370,
      "ĠPas": 4371,
      "ĠPun": 4372,
      "ĠPDF": 4373,
      "ĠPedro": 4374,
      "iler": 4375,
      "Ġ(âĢĵ": 4376,
      "ĠCa": 4377,
      "ĠCap": 4378,
      "Ġgub": 4379,
      "ibuj": 4380,
      "ach": 4381,
      "embre": 4382,
      "uld": 4383,
      "Ġexpecta": 4384,
      "Ġdestin": 4385,
      "Ġdeseas": 4386,
      "Ġdesigual": 4387,
      "loud": 4388,
      "umÃ¡tico": 4389,
      "Ġpoda": 4390,
      "Ġ\"Â¿": 4391,
      "Ġpuedan": 4392,
      "Ġrestr": 4393,
      "ormente": 4394,
      "ival": 4395,
      "ĠimÃ¡gen": 4396,
      "Ġpron": 4397,
      "Ġseres": 4398,
      "Ġcuidado": 4399,
      "Ġron": 4400,
      "ĠTi": 4401,
      "ĠThe": 4402,
      "ĠTamb": 4403,
      "deral": 4404,
      "ĠMene": 4405,
      "elp": 4406,
      "Ġtuvo": 4407,
      "ĠDado": 4408,
      "Ġ41": 4409,
      "mbolo": 4410,
      "Ġestad": 4411,
      "Ġargentin": 4412,
      "ĠFun": 4413,
      "ĠFRO": 4414,
      "ĠFactores": 4415,
      "Ã¡nica": 4416,
      "Ġsolar": 4417,
      "Ġasoci": 4418,
      "Ġ`$": 4419,
      "Ġcamino": 4420,
      "Ġeval": 4421,
      "Ġpago": 4422,
      "ĠGob": 4423,
      "Ġcin": 4424,
      "Ġcartas": 4425,
      "Ġplante": 4426,
      "Ġcrip": 4427,
      "parej": 4428,
      "tablec": 4429,
      "ĠCons": 4430,
      "Ġvalidar": 4431,
      "itarios": 4432,
      "Ġrespec": 4433,
      "Ġcliente": 4434,
      "ielo": 4435,
      "iedad": 4436,
      "Ġcogn": 4437,
      "Ġabuela": 4438,
      "Ġaplicado": 4439,
      "Ġcaos": 4440,
      "Ġgeneralmente": 4441,
      "Ġbasados": 4442,
      "ĠVamos": 4443,
      "Ġsignificado": 4444,
      "ualidad": 4445,
      "Ġlleg": 4446,
      "Ġespecial": 4447,
      "Ġespecializada": 4448,
      "ĠdivisiÃ³n": 4449,
      "Ġcolo": 4450,
      "Ġtempera": 4451,
      "ĠdecisiÃ³n": 4452,
      "ĠpermitiÃ³": 4453,
      "hed": 4454,
      "Ġratio": 4455,
      "Ġhash": 4456,
      "Ġadaptado": 4457,
      "Ġ$$": 4458,
      "ĠproyecciÃ³n": 4459,
      "ĠprÃ¡cticos": 4460,
      "ĠintegraciÃ³n": 4461,
      "ractal": 4462,
      "Ġcandida": 4463,
      "Ġfuerte": 4464,
      "Ġfuerzas": 4465,
      "Ġmarca": 4466,
      "Ġpesos": 4467,
      "Ġcosas": 4468,
      "Ġcontrato": 4469,
      "ĠtecnolÃ³gicas": 4470,
      "Ġidentificaron": 4471,
      "Ġsentido": 4472,
      "ĠWeb": 4473,
      "ducible": 4474,
      "Ġambientales": 4475,
      "ĠemociÃ³n": 4476,
      "Ġdensidad": 4477,
      "Ġentrada": 4478,
      "lena": 4479,
      "Ġlibro": 4480,
      "Ġlibertad": 4481,
      "Ġintereses": 4482,
      "Ġparticipativo": 4483,
      "Ġclases": 4484,
      "atoria": 4485,
      "oluto": 4486,
      "Ġdepender": 4487,
      "Ġnormas": 4488,
      "Ġcomprome": 4489,
      "Ġrequieren": 4490,
      "Ġnuestros": 4491,
      "ernam": 4492,
      "Ġbifur": 4493,
      "Ġtaller": 4494,
      "Ġuniformes": 4495,
      "Ġplataforma": 4496,
      "LECT": 4497,
      "Ġcercanos": 4498,
      "082": 4499,
      "Ġmovimiento": 4500,
      "Ġmovimientos": 4501,
      "ĠPerÃº": 4502,
      "Ġenfrentar": 4503,
      "Ġâī¤": 4504,
      "Ġagrupar": 4505,
      "Ġextremadamente": 4506,
      "Ġprofesor": 4507,
      "Ġpolinomio": 4508,
      "Ġpolinomial": 4509,
      "ĠProblema": 4510,
      "Ġonline": 4511,
      "ĠIdentificar": 4512,
      "Ġmodificar": 4513,
      "Ġenviar": 4514,
      "Ġdividir": 4515,
      "Ġnaciste": 4516,
      "Ġcarrera": 4517,
      "Ġinvolucr": 4518,
      "ĠvÃŃc": 4519,
      "ĠCopa": 4520,
      "Ġpracticar": 4521,
      "Ġafir": 4522,
      "Ġtranslates": 4523,
      "Objetivo": 4524,
      "Ġventana": 4525,
      "ĠquÃŃmica": 4526,
      "ĠâĢĵ": 4527,
      "COMPUES": 4528,
      "Ġingresos": 4529,
      "ĠTrastÃ¡mara": 4530,
      "ĠinterrupciÃ³n": 4531,
      "Ġenfermedades": 4532,
      "ject": 4533,
      "omendaciones": 4534,
      "Ġocultos": 4535,
      "Ġbiliar": 4536,
      "ĠaceleraciÃ³n": 4537,
      "ĠacadÃ©m": 4538,
      "Ġirreducible": 4539,
      "ĠtelÃ©f": 4540,
      "ĠtopolÃ³gico": 4541,
      "Ġcruzada": 4542,
      "ĠhÃŃdrica": 4543,
      "Ġ||--": 4544,
      "Ġjoven": 4545,
      "Ã§Ã": 4546,
      "Ġizquier": 4547,
      "Omega": 4548,
      "wagandha": 4549,
      "ĠÃ©nfasis": 4550,
      "Ġfprintf": 4551,
      "Ġgubernam": 4552,
      "ĠimÃ¡genes": 4553,
      "ĠTambiÃ©n": 4554,
      "ĠMeneame": 4555,
      "ĠFROM": 4556,
      "Ġbifurc": 4557,
      "COMPUESTO": 4558,
      ")(": 4559,
      ".).": 4560,
      "05": 4561,
      "=[": 4562,
      "Ar": 4563,
      "ATO": 4564,
      "EC": 4565,
      "FF": 4566,
      "FS": 4567,
      "GS": 4568,
      "IO": 4569,
      "PI": 4570,
      "Para": 4571,
      "Pers": 4572,
      "PAR": 4573,
      "SO": 4574,
      "atro": 4575,
      "cun": 4576,
      "cle": 4577,
      "centa": 4578,
      "dis": 4579,
      "hÃŃ": 4580,
      "hwagandha": 4581,
      "ket": 4582,
      "lones": 4583,
      "mul": 4584,
      "ny": 4585,
      "pacto": 4586,
      "ric": 4587,
      "rho": 4588,
      "sw": 4589,
      "tad": 4590,
      "tada": 4591,
      "taciones": 4592,
      "tadas": 4593,
      "tador": 4594,
      "up": 4595,
      "},": 4596,
      "Âº": 4597,
      "Ã¼": 4598,
      "ĠÃºlti": 4599,
      "Ġuma": 4600,
      "ĠquiÃ©n": 4601,
      "Ĺı": 4602,
      "detallado": 4603,
      "eso": 4604,
      "ĠdetecciÃ³n": 4605,
      "arÃ¡": 4606,
      "Ġscre": 4607,
      "Ġag": 4608,
      "Ġaus": 4609,
      "ortal": 4610,
      "orpresa": 4611,
      "tigo": 4612,
      "Ã³lo": 4613,
      "alik": 4614,
      "alicÃ©": 4615,
      "adie": 4616,
      "ins": 4617,
      "Ġmad": 4618,
      "Ġmuer": 4619,
      "Ġmujer": 4620,
      "icaciones": 4621,
      "Ġescu": 4622,
      "omag": 4623,
      "isa": 4624,
      "Ã¡ticamente": 4625,
      "Ġconse": 4626,
      "tamientos": 4627,
      "taanÃ¡lisis": 4628,
      "Ġdic": 4629,
      "ĠdÃ©c": 4630,
      "Ġintu": 4631,
      "Ġfra": 4632,
      "Ġpare": 4633,
      "Ġparalel": 4634,
      "Ġho": 4635,
      "Ġht": 4636,
      "Ġhola": 4637,
      "Ġhielo": 4638,
      "ĠseÃ±": 4639,
      "tuar": 4640,
      "tuales": 4641,
      "Ġcomen": 4642,
      "ĠEm": 4643,
      "oluta": 4644,
      "Ġrey": 4645,
      "Ġrealizado": 4646,
      "Ġreferencia": 4647,
      "Ã©ticos": 4648,
      "ambre": 4649,
      "amientos": 4650,
      "Ġveg": 4651,
      "Ġventa": 4652,
      "ĠvÃ©r": 4653,
      "ress": 4654,
      "Ġbol": 4655,
      "Ġbando": 4656,
      "ĠAS": 4657,
      "ĠAdap": 4658,
      "ĠAplicar": 4659,
      "ĠAbs": 4660,
      "Ġalmacen": 4661,
      "izado": 4662,
      "ĠLuna": 4663,
      "ray": 4664,
      "illo": 4665,
      "illas": 4666,
      "itando": 4667,
      "ĠCOMP": 4668,
      "Ġgas": 4669,
      "Ġguerra": 4670,
      "Ġgrafos": 4671,
      "iba": 4672,
      "ull": 4673,
      "ultar": 4674,
      "ulner": 4675,
      "Ġextern": 4676,
      "Ġexamen": 4677,
      "Ġdeseo": 4678,
      "Ġdescribir": 4679,
      "Ġdesastre": 4680,
      "Ġcompras": 4681,
      "modin": 4682,
      "ĠEstra": 4683,
      "ĠEstados": 4684,
      "ĠEstablec": 4685,
      "Ġpot": 4686,
      "Ġmez": 4687,
      "Ġmeto": 4688,
      "Ġmedicamentos": 4689,
      "Ġnodo": 4690,
      "portancia": 4691,
      "Ġporcenta": 4692,
      "ursos": 4693,
      "Ġimag": 4694,
      "ĠIdea": 4695,
      "ĠserÃŃan": 4696,
      "Ġ32": 4697,
      "Ġ36": 4698,
      "elas": 4699,
      "ĠRG": 4700,
      "ĠReg": 4701,
      "Ġacces": 4702,
      "ĠDonde": 4703,
      "ĠDurante": 4704,
      "atividad": 4705,
      "Ġmoto": 4706,
      "alizamos": 4707,
      "uestos": 4708,
      "ĠNew": 4709,
      "Ġdistin": 4710,
      "Ġdismin": 4711,
      "Ġapag": 4712,
      "----|": 4713,
      "posta": 4714,
      "ĠHere": 4715,
      "Ġpost": 4716,
      "ficiencia": 4717,
      "Ġub": 4718,
      "Ġentrevistas": 4719,
      "Ġoblig": 4720,
      "istemas": 4721,
      "tina": 4722,
      "times": 4723,
      "vers": 4724,
      "Ġmaxim": 4725,
      "Ġmadera": 4726,
      "Ġlet": 4727,
      "Ġcarto": 4728,
      "Ġcaptura": 4729,
      "Ġplaca": 4730,
      "ĠcrÃ©": 4731,
      "Ġcreo": 4732,
      "Ġemparej": 4733,
      "Ġimpre": 4734,
      "Ġpersonaje": 4735,
      "Ġclim": 4736,
      "ĠRealizar": 4737,
      "ĠReino": 4738,
      "ĠRealiza": 4739,
      "truct": 4740,
      "ĠpasiÃ³n": 4741,
      "ĠOfrec": 4742,
      "Ġposiblemente": 4743,
      "Ġhave": 4744,
      "Ġpreguntar": 4745,
      "Ġpresencia": 4746,
      "Ġpresidente": 4747,
      "ĠgeneraciÃ³n": 4748,
      "ĠexplÃŃci": 4749,
      "ĠCompatibilidad": 4750,
      "ultad": 4751,
      "Ġtransacciones": 4752,
      "Ġtransposta": 4753,
      "Ġplanas": 4754,
      "Ġefecto": 4755,
      "Ġauten": 4756,
      "ĠâĹı": 4757,
      "ĠExpress": 4758,
      "Ġadaptar": 4759,
      "ĠadaptaciÃ³n": 4760,
      "ĠDespuÃ©s": 4761,
      "ĠNode": 4762,
      "Ġdirecta": 4763,
      "ĠdirecciÃ³n": 4764,
      "Ġideal": 4765,
      "Ġboosting": 4766,
      "random": 4767,
      "Ġcontinuo": 4768,
      "Ġadivin": 4769,
      "Ġcosto": 4770,
      "Ġdescubre": 4771,
      "Ġdescuento": 4772,
      "Ġorganizaciones": 4773,
      "Ġrecomiendo": 4774,
      "Ġrecomienda": 4775,
      "Ġhistorial": 4776,
      "Ġsugieren": 4777,
      "youtu": 4778,
      "rifici": 4779,
      "Ġvisu": 4780,
      "Ġpapa": 4781,
      "ĠdiseÃ±": 4782,
      "ĠRespuesta": 4783,
      "Ġciertas": 4784,
      "ĠpequeÃ±a": 4785,
      "Ġreconocer": 4786,
      "Ġapoy": 4787,
      "ĠteÃ³ricas": 4788,
      "ĠsÃŃmbolo": 4789,
      "ĠfÃŃsicas": 4790,
      "Ġindica": 4791,
      "Ġhubiera": 4792,
      "Ġbueno": 4793,
      "Ġcircun": 4794,
      "Ġrazon": 4795,
      "ĠÃģ": 4796,
      "9999": 4797,
      "Ġentornos": 4798,
      "Ġbrill": 4799,
      "Ġprograma": 4800,
      "Ġcursos": 4801,
      "board": 4802,
      "Ġcomportamientos": 4803,
      "ĠrÃ¡pido": 4804,
      "Ġbajos": 4805,
      "Ġcortocir": 4806,
      "Ġsorpren": 4807,
      "Ġgusta": 4808,
      "Ġdiversidad": 4809,
      "Ġalimentos": 4810,
      "Ġelectromag": 4811,
      "ĠAmigo": 4812,
      "Ġradio": 4813,
      "ĠMejorar": 4814,
      "Ġzonas": 4815,
      "Ġvolumen": 4816,
      "Recuerda": 4817,
      "Ġalumnos": 4818,
      "Ġ4326": 4819,
      "ĠGranger": 4820,
      "Ġflexible": 4821,
      "Ġcercana": 4822,
      "Ġejercicio": 4823,
      "dlp": 4824,
      "Ġescritura": 4825,
      "Ġrespeto": 4826,
      "ĠTrue": 4827,
      "Ġlineal": 4828,
      "Ġrevelar": 4829,
      "Ġagrup": 4830,
      "ĠProblemas": 4831,
      "Ġurl": 4832,
      "Ġconfir": 4833,
      "Ġbreaker": 4834,
      "ĠAjustar": 4835,
      "Ġpercepciones": 4836,
      "stat": 4837,
      "Ġdemocr": 4838,
      "Ġbarr": 4839,
      "Ġdificulta": 4840,
      "ĠcapacitaciÃ³n": 4841,
      "ĠMÃ©xico": 4842,
      "ĠpermitirÃ¡": 4843,
      "Ġsecundarios": 4844,
      "Ġviajes": 4845,
      "Ġconquista": 4846,
      "imitaciones": 4847,
      "DefiniciÃ³n": 4848,
      "Ġgotas": 4849,
      "ĠarmonÃŃa": 4850,
      "Ġoptimizar": 4851,
      "Ġfrase": 4852,
      "Ġexplico": 4853,
      "Ġadministr": 4854,
      "ĠTemporales": 4855,
      "Ġreempla": 4856,
      "ĠsÃ³lida": 4857,
      "Ġecosistema": 4858,
      "Ã©lv": 4859,
      "ĠFinalmente": 4860,
      "Ġaprovechar": 4861,
      "suficiente": 4862,
      "ĠdesempeÃ±o": 4863,
      "Ġcontraste": 4864,
      "Ġdisfru": 4865,
      "tropÃŃa": 4866,
      "ĠtamaÃ±o": 4867,
      "Ġligeramente": 4868,
      "Ãģrea": 4869,
      "Ġpulgadas": 4870,
      "aleatorios": 4871,
      "ĠtrÃ¡iler": 4872,
      "ĠpropÃ³sito": 4873,
      "Ġmemoria": 4874,
      "Ġproteger": 4875,
      "Ġexpectativas": 4876,
      "Ġrestric": 4877,
      "ĠGobierno": 4878,
      "Ġcandidato": 4879,
      "Ġbifurcaciones": 4880,
      "Ġscreen": 4881,
      "Ġporcentaje": 4882,
      "youtube": 4883,
      "Ġelectromagn": 4884,
      "();": 4885,
      ".\\": 4886,
      "44": 4887,
      "90": 4888,
      "CK": 4889,
      "Dis": 4890,
      "IRE": 4891,
      "MA": 4892,
      "Ma": 4893,
      "Man": 4894,
      "RY": 4895,
      "Song": 4896,
      "SHA": 4897,
      "Ten": 4898,
      "Tube": 4899,
      "UU": 4900,
      "Ventajas": 4901,
      "_\\": 4902,
      "afÃŃos": 4903,
      "cola": 4904,
      "color": 4905,
      "dado": 4906,
      "elo": 4907,
      "gir": 4908,
      "ix": 4909,
      "idencia": 4910,
      "non": 4911,
      "pular": 4912,
      "sel": 4913,
      "tom": 4914,
      "tones": 4915,
      "ujo": 4916,
      "wn": 4917,
      "yle": 4918,
      "zana": 4919,
      "£o": 4920,
      "´=[": 4921,
      "Â´=[": 4922,
      "eno": 4923,
      "enÃ³m": 4924,
      "enberg": 4925,
      "Ġdeja": 4926,
      "Ġpaja": 4927,
      "ĠpÃ©lv": 4928,
      "cina": 4929,
      "Ġlan": 4930,
      "Ġlibr": 4931,
      "arla": 4932,
      "erra": 4933,
      "ondo": 4934,
      "onista": 4935,
      "Ġsh": 4936,
      "Ġsiento": 4937,
      "Ġaz": 4938,
      "Ġapor": 4939,
      "ortem": 4940,
      "Ã³ma": 4941,
      "unk": 4942,
      "inado": 4943,
      "inea": 4944,
      "Ġmir": 4945,
      "Ġenc": 4946,
      "Ġencan": 4947,
      "ĠentropÃŃa": 4948,
      "Ġesas": 4949,
      "Ġesencia": 4950,
      "isenberg": 4951,
      "Ġelimin": 4952,
      "taÃ±as": 4953,
      "ĠnÃº": 4954,
      "Ġdr": 4955,
      "Ġdum": 4956,
      "Ġdice": 4957,
      "Ġinm": 4958,
      "Ġintr": 4959,
      "Ġintro": 4960,
      "Ġfractal": 4961,
      "Ġhal": 4962,
      "Ġhora": 4963,
      "Ġcomidas": 4964,
      "ĠEE": 4965,
      "Ġrec": 4966,
      "Ã©el": 4967,
      "ames": 4968,
      "entado": 4969,
      "Ġvas": 4970,
      "Ġvista": 4971,
      "Ġvaso": 4972,
      "ĠAp": 4973,
      "ĠAgua": 4974,
      "ĠAplicaciones": 4975,
      "Ġdelimit": 4976,
      "ĠLik": 4977,
      "pli": 4978,
      "abla": 4979,
      "abilidades": 4980,
      "Ġges": 4981,
      "Ġgaps": 4982,
      "ĠSE": 4983,
      "ĠSer": 4984,
      "ĠSab": 4985,
      "ĠSosten": 4986,
      "ĠSistema": 4987,
      "ĠShan": 4988,
      "ultura": 4989,
      "Ġ26": 4990,
      "Ġ27": 4991,
      "Ġ29": 4992,
      "Ġdescr": 4993,
      "Ġdescom": 4994,
      "Ġcompet": 4995,
      "ĠEspos": 4996,
      "Ġ\"#": 4997,
      "Ġresta": 4998,
      "Ġresil": 4999,
      "ĠprevenciÃ³n": 5000,
      "Ġprevenir": 5001,
      "trato": 5002,
      "sias": 5003,
      "sion": 5004,
      "Ġpruebas": 5005,
      "Ġcub": 5006,
      "Ġ31": 5007,
      "Ġ37": 5008,
      "perties": 5009,
      "Ġju": 5010,
      "Ġjump": 5011,
      "Ġaca": 5012,
      "Ġactivos": 5013,
      "ĠDos": 5014,
      "ajos": 5015,
      "tilidad": 5016,
      "Ġarqui": 5017,
      "ĠEntre": 5018,
      "ĠEnunciado": 5019,
      "Ġsiente": 5020,
      "Ã¡nto": 5021,
      "Ã¡ntica": 5022,
      "Ġsola": 5023,
      "ĠmanipulaciÃ³n": 5024,
      "ificaciones": 5025,
      "ĠtenÃŃan": 5026,
      "Ġtenga": 5027,
      "Ġtenemos": 5028,
      "ĠtendrÃŃa": 5029,
      "lose": 5030,
      "Ġcorri": 5031,
      "Ġcompletar": 5032,
      "Ġcompletamente": 5033,
      "onalidad": 5034,
      "clus": 5035,
      "ĠUnido": 5036,
      "ĠGuerra": 5037,
      "Ġciencias": 5038,
      "Ġcivil": 5039,
      "Ġletras": 5040,
      "ced": 5041,
      "ceder": 5042,
      "ĠcardÃŃa": 5043,
      "Ġoptar": 5044,
      "Ġcapaces": 5045,
      "Ġplomo": 5046,
      "Ġcaliente": 5047,
      "quire": 5048,
      "Ġempe": 5049,
      "Ġempren": 5050,
      "Ġenfati": 5051,
      "vela": 5052,
      "Ġvalue": 5053,
      "Ġintegra": 5054,
      "ĠsimulaciÃ³n": 5055,
      "Ġcolec": 5056,
      "paÃ±": 5057,
      "Ġpases": 5058,
      "Ġinforme": 5059,
      "Ġcasi": 5060,
      "Ġpresentan": 5061,
      "ther": 5062,
      "Ġcomunidades": 5063,
      "Ġmedir": 5064,
      "pleo": 5065,
      "ĠmÃ©dica": 5066,
      "ĠComment": 5067,
      "ĠJo": 5068,
      "ĠJustificaciÃ³n": 5069,
      "TOCK": 5070,
      "hock": 5071,
      "Ġestratificada": 5072,
      "Ġ80": 5073,
      "Ġllegar": 5074,
      "Ġfinales": 5075,
      "Ġverda": 5076,
      "Ġaudi": 5077,
      "Ġpolares": 5078,
      "Ġcolum": 5079,
      "Ġestamos": 5080,
      "Ġpartida": 5081,
      "Ã¡ctica": 5082,
      "Ġfuente": 5083,
      "Ġinvestigadores": 5084,
      "fianza": 5085,
      "Ġadapte": 5086,
      "finamiento": 5087,
      "esiones": 5088,
      "Ġmide": 5089,
      "CTORY": 5090,
      "ĠÃ©tica": 5091,
      "obol": 5092,
      "ĠmÃ¡g": 5093,
      "Ġproductividad": 5094,
      "olÃ³gica": 5095,
      "Ġdirectorios": 5096,
      "ĠImportancia": 5097,
      "Ġchina": 5098,
      "Ġbool": 5099,
      "Ġcompartir": 5100,
      "Ġmillones": 5101,
      "Ġmarco": 5102,
      "Ġcausalidad": 5103,
      "rand": 5104,
      "Ġcercan": 5105,
      "grama": 5106,
      "Ġhacerlo": 5107,
      "ĠlÃŃqu": 5108,
      "Ġsuger": 5109,
      "Ġsugerir": 5110,
      "Ġambas": 5111,
      "ĠPruebas": 5112,
      "Ġnew": 5113,
      "Ġhipo": 5114,
      "style": 5115,
      "Ġadecuadamente": 5116,
      "properties": 5117,
      "ĠMarcar": 5118,
      "--------------------------------": 5119,
      "ĠdinÃ¡m": 5120,
      "Ġrobusto": 5121,
      "ĠtÃ©rmino": 5122,
      "Ġaumenta": 5123,
      "villa": 5124,
      "olucionar": 5125,
      "ĠXGBoost": 5126,
      "Ġampliamente": 5127,
      "Ġnormalmente": 5128,
      "Ġinnovadoras": 5129,
      "ĠÃī": 5130,
      "Desarrol": 5131,
      "Ġnegativo": 5132,
      "Ġprogramas": 5133,
      "Problemas": 5134,
      "Ġaparecer": 5135,
      "Ġconfigur": 5136,
      "ĠDiscusiÃ³n": 5137,
      "ĠConsideraciÃ³n": 5138,
      "ĠtransformaciÃ³n": 5139,
      "âĤĢ": 5140,
      "Ġcentrado": 5141,
      "ĠUtilizando": 5142,
      "string": 5143,
      "Ġsuelo": 5144,
      "Ġdominio": 5145,
      "Ġderecho": 5146,
      "Ġesperada": 5147,
      "tÃ³nica": 5148,
      "ĠHeisenberg": 5149,
      "oloca": 5150,
      "ĠgeolÃ³gicos": 5151,
      "many": 5152,
      "manzana": 5153,
      "Ġrandom": 5154,
      "ĠmÃ©dicos": 5155,
      "ĠÃºnica": 5156,
      "Ġuniversitarios": 5157,
      "Ġempresar": 5158,
      "Ġexpresar": 5159,
      "Ġmencionados": 5160,
      "âģ´": 5161,
      "Ġerror": 5162,
      "enault": 5163,
      "Ġclara": 5164,
      "Ġparticulares": 5165,
      "Ġsentirse": 5166,
      "Ġmicro": 5167,
      "ĠfÃ¡cilmente": 5168,
      "SEPAR": 5169,
      "Ġromana": 5170,
      "Ġquiero": 5171,
      "Ġinstalar": 5172,
      "Ġlleno": 5173,
      "Ġsostenibilidad": 5174,
      "Ġprovincia": 5175,
      "ĠmÃ¡quina": 5176,
      "ĠCrear": 5177,
      "ĠGesto": 5178,
      "ĠGesture": 5179,
      "ĠVerdadero": 5180,
      "Ġrecuer": 5181,
      "Ġdispositivo": 5182,
      "Ġdispositivos": 5183,
      "ĠSeguridad": 5184,
      "Ġindependi": 5185,
      "Ġconflictos": 5186,
      "ĠBusca": 5187,
      "ĠejecuciÃ³n": 5188,
      "Ġestableci": 5189,
      "Buena": 5190,
      "Ġensay": 5191,
      "Ġanteriormente": 5192,
      "Ġinstituciones": 5193,
      "dedor": 5194,
      "ĠaviÃ³n": 5195,
      "Ġinherente": 5196,
      "Ġdiscursos": 5197,
      "itudes": 5198,
      "pieza": 5199,
      "ĠanalizÃ³": 5200,
      "Ġirrad": 5201,
      "Ġacuerdo": 5202,
      "Ġpeligros": 5203,
      "Ġmutua": 5204,
      "Ġhogar": 5205,
      "Ġprogreso": 5206,
      "Ġrigur": 5207,
      "ĠDetalle": 5208,
      "ĠYouTube": 5209,
      "pongamos": 5210,
      "ĠUNE": 5211,
      "ĠempatÃŃa": 5212,
      "ĠInformaciÃ³n": 5213,
      "ĠPotencial": 5214,
      "Ġmusicales": 5215,
      "Orilla": 5216,
      "iflora": 5217,
      "Ġsacrifici": 5218,
      "ĠPuntÃºa": 5219,
      "ĠcriptografÃŃa": 5220,
      "ĠvÃŃctimas": 5221,
      "Ġizquierda": 5222,
      "ATOR": 5223,
      "Ġvege": 5224,
      "modinÃ¡mica": 5225,
      "ĠcrÃ©di": 5226,
      "IRECTORY": 5227,
      "self": 5228,
      "ĠnÃºcle": 5229,
      "Ġdummy": 5230,
      "ĠShannon": 5231,
      "ĠEsposo": 5232,
      "Ġarquitec": 5233,
      "SEPARATOR": 5234,
      "():": 5235,
      ".*": 5236,
      "49": 5237,
      "61": 5238,
      "</": 5239,
      "CION": 5240,
      "Cloud": 5241,
      "Form": 5242,
      "II": 5243,
      "Mo": 5244,
      "Nivel": 5245,
      "PF": 5246,
      "RL": 5247,
      "Si": 5248,
      "Tienes": 5249,
      "This": 5250,
      "UL": 5251,
      "]:": 5252,
      "ate": 5253,
      "cdo": 5254,
      "dra": 5255,
      "ele": 5256,
      "flex": 5257,
      "fund": 5258,
      "gl": 5259,
      "gue": 5260,
      "gulo": 5261,
      "ira": 5262,
      "iencias": 5263,
      "men": 5264,
      "mis": 5265,
      "mÃ©": 5266,
      "micos": 5267,
      "nes": 5268,
      "oterap": 5269,
      "pens": 5270,
      "rÃŃ": 5271,
      "rido": 5272,
      "rosa": 5273,
      "sy": 5274,
      "son": 5275,
      "tbol": 5276,
      "uidos": 5277,
      "vas": 5278,
      "venci": 5279,
      "viar": 5280,
      "vior": 5281,
      "zada": 5282,
      "Ä«": 5283,
      "Ġ!": 5284,
      "Ġ%": 5285,
      "ĠÃ¡n": 5286,
      "entro": 5287,
      "esÃŃa": 5288,
      "estra": 5289,
      "Ġdecor": 5290,
      "Ġpu": 5291,
      "Ġpudi": 5292,
      "Ġlar": 5293,
      "asa": 5294,
      "Ġsa": 5295,
      "Ġsw": 5296,
      "Ġstruct": 5297,
      "Ġshock": 5298,
      "ĠaÃ±": 5299,
      "Ġagr": 5300,
      "Ġazar": 5301,
      "org": 5302,
      "ork": 5303,
      "orar": 5304,
      "tios": 5305,
      "Ġed": 5306,
      "ala": 5307,
      "all": 5308,
      "allo": 5309,
      "alimentaciÃ³n": 5310,
      "inaria": 5311,
      "Ġmy": 5312,
      "ĠmÃŃ": 5313,
      "Ġmaca": 5314,
      "tegr": 5315,
      "Ġenorm": 5316,
      "Ġencar": 5317,
      "Ġestu": 5318,
      "Ġunos": 5319,
      "ĠuniÃ³n": 5320,
      "omos": 5321,
      "ÃŃamos": 5322,
      "isto": 5323,
      "Ġconejos": 5324,
      "Ġcontigo": 5325,
      "tock": 5326,
      "iduos": 5327,
      "Ġquedar": 5328,
      "lecimiento": 5329,
      "Ġnadie": 5330,
      "Ġdio": 5331,
      "Ġdura": 5332,
      "Ġinal": 5333,
      "Ġinput": 5334,
      "Ġincre": 5335,
      "ĠfenÃ³m": 5336,
      "Ġhier": 5337,
      "Ġhomo": 5338,
      "Ġcomien": 5339,
      "ĠEduc": 5340,
      "Ġrequire": 5341,
      "Ġofici": 5342,
      "Ġojos": 5343,
      "enten": 5344,
      "Ġvig": 5345,
      "Ġvoy": 5346,
      "Ġvulner": 5347,
      "Ġprotag": 5348,
      "Ġbor": 5349,
      "ĠAz": 5350,
      "ĠAum": 5351,
      "ĠAgre": 5352,
      "ĠtÃŃo": 5353,
      "Ġalco": 5354,
      "Ġalfa": 5355,
      "izando": 5356,
      "ĠPon": 5357,
      "ĠPPF": 5358,
      "Ġ(-": 5359,
      "Ãºtbol": 5360,
      "iter": 5361,
      "itas": 5362,
      "igos": 5363,
      "igma": 5364,
      "ĠCLASIFICACION": 5365,
      "Ġgol": 5366,
      "ĠSo": 5367,
      "ĠStr": 5368,
      "ĠSur": 5369,
      "ĠSocial": 5370,
      "ĠSobol": 5371,
      "Ġsuplem": 5372,
      "Ġsuav": 5373,
      "ibun": 5374,
      "embr": 5375,
      "Ġexp": 5376,
      "Ġexisten": 5377,
      "Ġperio": 5378,
      "--|": 5379,
      "ĠEstim": 5380,
      "Ġpod": 5381,
      "Ġpocas": 5382,
      "Ġpopular": 5383,
      "ĠpoesÃŃa": 5384,
      "Ġresuel": 5385,
      "Ġresulta": 5386,
      "ivados": 5387,
      "Ġtierra": 5388,
      "urales": 5389,
      "ĠIr": 5390,
      "Ġcubrir": 5391,
      "Ġcuatro": 5392,
      "Ġusa": 5393,
      "Ġrenta": 5394,
      "Ġ39": 5395,
      "iero": 5396,
      "eles": 5397,
      "ĠRa": 5398,
      "ĠRo": 5399,
      "ĠRenault": 5400,
      "Ġanal": 5401,
      "Ġ\\):": 5402,
      "apas": 5403,
      "apro": 5404,
      "Ġacom": 5405,
      "Ġtuv": 5406,
      "Ġprobables": 5407,
      "alizaciones": 5408,
      "seudo": 5409,
      "ĠNuev": 5410,
      "ĠNacional": 5411,
      "ĠEntonces": 5412,
      "ĠEntren": 5413,
      "ĠFe": 5414,
      "ĠForm": 5415,
      "ĠFran": 5416,
      "Ġsientes": 5417,
      "Ġmantenido": 5418,
      "ÃŃses": 5419,
      "Ġascen": 5420,
      "Ġasign": 5421,
      "Ġinterior": 5422,
      "Ġintercamb": 5423,
      "Ġintervenci": 5424,
      "ĠBajos": 5425,
      "ĠHas": 5426,
      "Ġposiciones": 5427,
      "ĠiCloud": 5428,
      "Ġ`\\": 5429,
      "trover": 5430,
      "Ġconsistentes": 5431,
      "Ġevidencia": 5432,
      "ĠobstrucciÃ³n": 5433,
      "Ġsonoterap": 5434,
      "tines": 5435,
      "Ġmodelar": 5436,
      "ĠGen": 5437,
      "Ġmain": 5438,
      "jetas": 5439,
      "jetivos": 5440,
      "Ġnecesarias": 5441,
      "Ġorilla": 5442,
      "Ġsustitu": 5443,
      "Ġdebemos": 5444,
      "Ġcalcul": 5445,
      "Ġcrees": 5446,
      "Ġcreativa": 5447,
      "Ġcreatividad": 5448,
      "Ġempez": 5449,
      "now": 5450,
      "emplaz": 5451,
      "ĠContrato": 5452,
      "havior": 5453,
      "ÃŃnea": 5454,
      "Ġknow": 5455,
      "Ġpersonalizado": 5456,
      "Ġpersonalizada": 5457,
      "Ġpersonalizados": 5458,
      "Ġcoj": 5459,
      "Ġcoinci": 5460,
      "Ġabstr": 5461,
      "Ġjuega": 5462,
      "Ġpasar": 5463,
      "Ġhabl": 5464,
      "Ġaplicarse": 5465,
      "ĠIns": 5466,
      "ansform": 5467,
      "Ġprocesar": 5468,
      "Ġprocesador": 5469,
      "Ġprocesamiento": 5470,
      "Ġcasco": 5471,
      "Ġcambia": 5472,
      "Ġgenerales": 5473,
      "Ġbastante": 5474,
      "Ġvariedad": 5475,
      "ĠplatÃ³nica": 5476,
      "Ġplanes": 5477,
      "Ġtratar": 5478,
      "brero": 5479,
      "Ġfinalmente": 5480,
      "pectiva": 5481,
      "Ġinstancias": 5482,
      "ĠinstrucciÃ³n": 5483,
      "Ġhayas": 5484,
      "Ġnaturales": 5485,
      "Incorpor": 5486,
      "Investig": 5487,
      "Ġadaptativos": 5488,
      "Ġ2024": 5489,
      "ational": 5490,
      "Ġmiembr": 5491,
      "Ġactualidad": 5492,
      "ĠProyec": 5493,
      "Ġjugadas": 5494,
      "ĠDesde": 5495,
      "Ġsaludables": 5496,
      "ĠsecciÃ³n": 5497,
      "Ġsecado": 5498,
      "Ġsecuelas": 5499,
      "Ġbode": 5500,
      "Ġbody": 5501,
      "Ġcomparti": 5502,
      "Ġavanzada": 5503,
      "Ġinteligentes": 5504,
      "Ġservicio": 5505,
      "Ġtarjetas": 5506,
      "Ġsegunda": 5507,
      "ĠYAM": 5508,
      "Ġafecta": 5509,
      "ĠlÃŃder": 5510,
      "Ġpotenciales": 5511,
      "ĠSupongamos": 5512,
      "ava": 5513,
      "Ġhoriz": 5514,
      "ĠeconÃ³micas": 5515,
      "Reflex": 5516,
      "Ġautoridad": 5517,
      "Ġautoritario": 5518,
      "ĠmÃ¡ximo": 5519,
      "quilibrio": 5520,
      "Ġdescarga": 5521,
      "ĠdefiniciÃ³n": 5522,
      "Ġvariaciones": 5523,
      "ĠfÃŃsico": 5524,
      "Ġmuscular": 5525,
      "Ġexperimenta": 5526,
      "Ġoperativo": 5527,
      "ĠAshwagandha": 5528,
      "iformes": 5529,
      "prender": 5530,
      "Ġconvir": 5531,
      "ĠPaÃŃses": 5532,
      "Ġaparecen": 5533,
      "Compatibilidad": 5534,
      "ĠDistribuciÃ³n": 5535,
      "ĠcÃŃcl": 5536,
      "Ġpreparar": 5537,
      "Ġcabo": 5538,
      "Ġcabra": 5539,
      "Ġcaballo": 5540,
      "ĠsueÃ±o": 5541,
      "ĠelÃ©ctricos": 5542,
      "itoreo": 5543,
      "ĠobservaciÃ³n": 5544,
      "Ġentrenamiento": 5545,
      "ĠbÃ¡sicas": 5546,
      "ĠelectrÃ³nico": 5547,
      "Ġdejando": 5548,
      "Ġcensistas": 5549,
      "Ġfase": 5550,
      "LEM": 5551,
      "Ġconexiones": 5552,
      "ĠObserv": 5553,
      "Ġpublicar": 5554,
      "Ġmosca": 5555,
      "Ġmoderna": 5556,
      "Ġrecomendable": 5557,
      "ĠChina": 5558,
      "onds": 5559,
      "Ġterminado": 5560,
      "ĠdifÃŃciles": 5561,
      "Ġderro": 5562,
      "Ġrelativamente": 5563,
      "Ġalternativos": 5564,
      "Ġquieres": 5565,
      "Ġfisioterapeuta": 5566,
      "Ġsome": 5567,
      "Ġfederal": 5568,
      "Ġdificultad": 5569,
      "seconds": 5570,
      "Ġbebida": 5571,
      "Ġabsoluto": 5572,
      "Ġsecundario": 5573,
      "Ġolla": 5574,
      "Ġcentro": 5575,
      "Ġocurre": 5576,
      "Ġdudes": 5577,
      "Ġinteractuar": 5578,
      "udicial": 5579,
      "ĠImagin": 5580,
      "Ġjaques": 5581,
      "ĠmagnÃ©tico": 5582,
      "ĠSeleccion": 5583,
      "Ġpreocupaciones": 5584,
      "wei": 5585,
      "ENTAR": 5586,
      "ĠhÃŃbridos": 5587,
      "antasÃŃa": 5588,
      "Ġrecop": 5589,
      "Mejor": 5590,
      "Patrones": 5591,
      "ĠQue": 5592,
      "Ġatractivo": 5593,
      "Ġimprim": 5594,
      "uawei": 5595,
      "ĠpensiÃ³n": 5596,
      "ĠenseÃ±": 5597,
      "Ġcontempl": 5598,
      "Ġnutr": 5599,
      "ĠvacÃŃo": 5600,
      "Ġimposible": 5601,
      "Ġsofisticadas": 5602,
      "ĠFalso": 5603,
      "ĠAlgoritmos": 5604,
      "Ġrelevantes": 5605,
      "Ġinmediata": 5606,
      "ĠOrganiz": 5607,
      "Ġinusual": 5608,
      "ĠsistemÃ¡tica": 5609,
      "ĠJuez": 5610,
      "imensional": 5611,
      "foque": 5612,
      "ĠevalÃºa": 5613,
      "Ġtemperatura": 5614,
      "ĠdependerÃ¡": 5615,
      "Personalidad": 5616,
      "Ã¼edad": 5617,
      "Ġmuerte": 5618,
      "ĠdÃ©cada": 5619,
      "Ġhttps": 5620,
      "Ġventaja": 5621,
      "Ġmetod": 5622,
      "ĠNewton": 5623,
      "ĠcartogrÃ¡fica": 5624,
      "ĠexplÃŃcitamente": 5625,
      "Ġadivinanza": 5626,
      "ĠEEUU": 5627,
      "ĠLikert": 5628,
      "ĠSELECT": 5629,
      "Ġemprendimiento": 5630,
      "randint": 5631,
      "Ġirradia": 5632,
      "ĠcrÃ©dito": 5633,
      "cdot": 5634,
      "Ġalcoh": 5635,
      "seudoaleatorios": 5636,
      "Ġintervenciones": 5637,
      "troversias": 5638,
      "Ġsonoterapia": 5639,
      "Ġmiembros": 5640,
      "ĠYAML": 5641,
      "02": 5642,
      "70": 5643,
      "850": 5644,
      "BPP": 5645,
      "Bosque": 5646,
      "CO": 5647,
      "Div": 5648,
      "Ev": 5649,
      "IL": 5650,
      "OC": 5651,
      "POR": 5652,
      "Press": 5653,
      "Sig": 5654,
      "TA": 5655,
      "Ti": 5656,
      "UC": 5657,
      "];": 5658,
      "ader": 5659,
      "bra": 5660,
      "bana": 5661,
      "beta": 5662,
      "ee": 5663,
      "gaciÃ³n": 5664,
      "gencia": 5665,
      "geb": 5666,
      "help": 5667,
      "iores": 5668,
      "ija": 5669,
      "jercici": 5670,
      "ki": 5671,
      "ln": 5672,
      "lim": 5673,
      "mÃ¡s": 5674,
      "mÃ³s": 5675,
      "od": 5676,
      "paci": 5677,
      "rar": 5678,
      "racias": 5679,
      "right": 5680,
      "sar": 5681,
      "stas": 5682,
      "stancias": 5683,
      "sorpresa": 5684,
      "uto": 5685,
      "vado": 5686,
      "vante": 5687,
      "well": 5688,
      "xic": 5689,
      "xwell": 5690,
      "yt": 5691,
      "yos": 5692,
      "yun": 5693,
      "yac": 5694,
      "yendo": 5695,
      "}^": 5696,
      "}}": 5697,
      "Äģ": 5698,
      "ĠÃ¡l": 5699,
      "ĠQuÃ©": 5700,
      "ĠÎ¼": 5701,
      "Ķl": 5702,
      "del": 5703,
      "enos": 5704,
      "estiv": 5705,
      "oscin": 5706,
      "Ġpudo": 5707,
      "Ġpseudoaleatorios": 5708,
      "Ġlin": 5709,
      "aras": 5710,
      "arti": 5711,
      "arÃ¡n": 5712,
      "arÃŃan": 5713,
      "Ġcho": 5714,
      "Ġcentra": 5715,
      "eral": 5716,
      "Ġsqrt": 5717,
      "oras": 5718,
      "tique": 5719,
      "Ã³ven": 5720,
      "reg": 5721,
      "remo": 5722,
      "uno": 5723,
      "uniden": 5724,
      "andas": 5725,
      "ueve": 5726,
      "Ġmor": 5727,
      "Ġmie": 5728,
      "Ġmone": 5729,
      "Ã³nicas": 5730,
      "Ġenci": 5731,
      "Ġenero": 5732,
      "ome": 5733,
      "ÃŃgen": 5734,
      "Ã¡lo": 5735,
      "idi": 5736,
      "left": 5737,
      "Ġnar": 5738,
      "Ġname": 5739,
      "Ġdo": 5740,
      "Ġdame": 5741,
      "Ġdibuj": 5742,
      "Ġintra": 5743,
      "Ġintros": 5744,
      "Ġingen": 5745,
      "Ġ**`": 5746,
      "Ġfel": 5747,
      "Ġfru": 5748,
      "ĠfÃºtbol": 5749,
      "Ġparse": 5750,
      "Ġhorm": 5751,
      "Ġseco": 5752,
      "tus": 5753,
      "tube": 5754,
      "ĠEdad": 5755,
      "ĠEuro": 5756,
      "ĠEfectos": 5757,
      "ĠESO": 5758,
      "Ġrealiz": 5759,
      "Ġreport": 5760,
      "Ġrecre": 5761,
      "Ġreduce": 5762,
      "Ġocu": 5763,
      "Ġout": 5764,
      "Ġoficial": 5765,
      "Ġves": 5766,
      "Ġvibr": 5767,
      "Ġvelas": 5768,
      "Ġ---": 5769,
      "Ġpropor": 5770,
      "resto": 5771,
      "ĠAy": 5772,
      "ĠAplicaciÃ³n": 5773,
      "ĠApli": 5774,
      "Ġton": 5775,
      "tivismo": 5776,
      "Ġalter": 5777,
      "Ġaline": 5778,
      "ĠPol": 5779,
      "ĠPlan": 5780,
      "Ġ1000": 5781,
      "ilos": 5782,
      "ilitudes": 5783,
      "ĠCub": 5784,
      "abora": 5785,
      "Ġgesti": 5786,
      "Ġgama": 5787,
      "Ġgato": 5788,
      "ĠSÃŃ": 5789,
      "ĠSens": 5790,
      "ĠSHA": 5791,
      "Ġsumar": 5792,
      "Ġsuminis": 5793,
      "ticaciÃ³n": 5794,
      "ibond": 5795,
      "iene": 5796,
      "ulas": 5797,
      "ficas": 5798,
      "Ġexitos": 5799,
      "Ġexpon": 5800,
      "ĠexÃ¡m": 5801,
      "ĠexposiciÃ³n": 5802,
      "Ġexterior": 5803,
      "diÃ³": 5804,
      "dial": 5805,
      "Ġdespl": 5806,
      "Ġpuedas": 5807,
      "Ġresal": 5808,
      "Ġresultar": 5809,
      "Ġresiduos": 5810,
      "ĠmetÃ¡": 5811,
      "Ġmexic": 5812,
      "Ġnoche": 5813,
      "Ġtin": 5814,
      "tratos": 5815,
      "Ġportales": 5816,
      "ĠportÃ¡": 5817,
      "sific": 5818,
      "tory": 5819,
      "tornos": 5820,
      "Ġcuar": 5821,
      "Ġ35": 5822,
      "perten": 5823,
      "ieres": 5824,
      "ĠMuc": 5825,
      "ĠMientras": 5826,
      "Ġ\\).": 5827,
      "Ġjudicial": 5828,
      "ĠjÃ³ven": 5829,
      "tensiones": 5830,
      "ĠdiÃ¡lo": 5831,
      "Ġ45": 5832,
      "Ġmodo": 5833,
      "Ġmotores": 5834,
      "tarÃŃa": 5835,
      "tario": 5836,
      "tarios": 5837,
      "Ġprobar": 5838,
      "plicado": 5839,
      "fera": 5840,
      "Ġargentina": 5841,
      "const": 5842,
      "Ġsobrev": 5843,
      "Ġsobrecar": 5844,
      "Ġapp": 5845,
      "Ġmaneras": 5846,
      "lara": 5847,
      "Ġasistente": 5848,
      "ĠBe": 5849,
      "ĠBr": 5850,
      "ĠBinom": 5851,
      "ĠBFS": 5852,
      "ĠHum": 5853,
      "Ġcorres": 5854,
      "ĠcorazÃ³n": 5855,
      "trodom": 5856,
      "Ġconsum": 5857,
      "Ġconsulta": 5858,
      "ĠUnidos": 5859,
      "tino": 5860,
      "ĠGoscin": 5861,
      "Ġnecesarios": 5862,
      "Ġori": 5863,
      "Ġcic": 5864,
      "Ġcielo": 5865,
      "Ã©stico": 5866,
      "cetines": 5867,
      "mium": 5868,
      "mitir": 5869,
      "Ġdebilidades": 5870,
      "Ġcru": 5871,
      "Ġcalcula": 5872,
      "Ġcalcetines": 5873,
      "Ġcrea": 5874,
      "Ġformal": 5875,
      "taba": 5876,
      "velocidad": 5877,
      "ĠConsidera": 5878,
      "Ġpredicha": 5879,
      "ÃŃnimo": 5880,
      "Ġintelec": 5881,
      "Ġsimbol": 5882,
      "ĠsimetrÃŃa": 5883,
      "Ġquien": 5884,
      "Ġqueso": 5885,
      "ieve": 5886,
      "Ġcole": 5887,
      "ĠRefinamiento": 5888,
      "ĠReemplaz": 5889,
      "Ġabier": 5890,
      "Ġabord": 5891,
      "Ġpasiflora": 5892,
      "ĠIncl": 5893,
      "ĠIntern": 5894,
      "Ġrefactor": 5895,
      "Ġprocesadores": 5896,
      "Ġpresente": 5897,
      "Ġcadena": 5898,
      "Ġdesarrollado": 5899,
      "Ġmediana": 5900,
      "ĠgenerÃ³": 5901,
      "Ġbases": 5902,
      "Ġ70": 5903,
      "ĠComparaciÃ³n": 5904,
      "Ġofreci": 5905,
      "Ġwe": 5906,
      "Ġsignificativas": 5907,
      "Ġprecisos": 5908,
      "Ġpreciso": 5909,
      "ingÃºn": 5910,
      "flam": 5911,
      "Ġ923": 5912,
      "Ġtransporte": 5913,
      "Ġregla": 5914,
      "Ġplantas": 5915,
      "Ġplaneta": 5916,
      "Ġexperto": 5917,
      "Ġexperiencias": 5918,
      "Ġhumor": 5919,
      "pecciÃ³n": 5920,
      "Ġefectivas": 5921,
      "Ġefectivamente": 5922,
      "Ġverdad": 5923,
      "ĠversiÃ³n": 5924,
      "ĠverificaciÃ³n": 5925,
      "Ġespecializado": 5926,
      "Ġconsideran": 5927,
      "Ġconsiderado": 5928,
      "Ġconsideraciones": 5929,
      "ĠespecÃŃficamente": 5930,
      "Ġhaya": 5931,
      "pretaciÃ³n": 5932,
      "precio": 5933,
      "Ġfutur": 5934,
      "Ġsuperviv": 5935,
      "ROPOR": 5936,
      "Ġavanzar": 5937,
      "ĠExisten": 5938,
      "ĠExcelente": 5939,
      "IntroducciÃ³n": 5940,
      "Ġcombina": 5941,
      "Ġestudiante": 5942,
      "Ġ2023": 5943,
      "Ġactualmente": 5944,
      "Ġactualizaciones": 5945,
      "Ġjugar": 5946,
      "Ġproyecciones": 5947,
      "ĠidentificaciÃ³n": 5948,
      "Ġidentificados": 5949,
      "Controversias": 5950,
      "Ġsector": 5951,
      "Ġcomputacionales": 5952,
      "Ġmillas": 5953,
      "Ġintentar": 5954,
      "Ġcausas": 5955,
      "ĠautÃ³ma": 5956,
      "Ġrevolucionar": 5957,
      "Ġsegura": 5958,
      "Ġseguidos": 5959,
      "Ġactivamente": 5960,
      "Ġelectrodom": 5961,
      "Ġsubir": 5962,
      "Ġsubyac": 5963,
      "ĠasegÃºrate": 5964,
      "Ġimplementadas": 5965,
      "Ġ</": 5966,
      "rique": 5967,
      "Ġencuestas": 5968,
      "Ġconocida": 5969,
      "Ġvisto": 5970,
      "Ġvisual": 5971,
      "Referencias": 5972,
      "ĠcuÃ¡ntas": 5973,
      "Ġestadouniden": 5974,
      "Ġeducativa": 5975,
      "Ġcontrolada": 5976,
      "ENTO": 5977,
      "Ġpensando": 5978,
      "ĠâĪĩ": 5979,
      "Ġdescargado": 5980,
      "Ġdeterminista": 5981,
      "ĠTeorema": 5982,
      "Ġmilitares": 5983,
      "Ġamplitud": 5984,
      "Ġyoutube": 5985,
      "TPV": 5986,
      "Ġcircuitos": 5987,
      "ocales": 5988,
      "Ġmusical": 5989,
      "Ġherb": 5990,
      "ĠImplementa": 5991,
      "Ġdemues": 5992,
      "Ġbrit": 5993,
      "Ġthink": 5994,
      "pira": 5995,
      "Ġ6060": 5996,
      "Ġtransformador": 5997,
      "ONENT": 5998,
      "valor": 5999,
      "valid": 6000,
      "ĠmontaÃ±as": 6001,
      "ĠUtilizar": 6002,
      "ĠcrÃŃticas": 6003,
      "ĠcrÃŃtico": 6004,
      "Ġsuele": 6005,
      "Ġsuelen": 6006,
      "Ġmatrices": 6007,
      "OMENTAR": 6008,
      "Ġ17850": 6009,
      "ĠSimulaciones": 6010,
      "Ġobservar": 6011,
      "ĠDesarrollar": 6012,
      "Ġgobern": 6013,
      "Ġdemostrando": 6014,
      "ĠKa": 6015,
      "Ġderecha": 6016,
      "Ġbeneficiarse": 6017,
      "Ġacep": 6018,
      "ĠpÃºblicas": 6019,
      "Ġindetermin": 6020,
      "Ġidi": 6021,
      "Ġfases": 6022,
      "Ġvolun": 6023,
      "Recomendaciones": 6024,
      "Ġlaborales": 6025,
      "Ġuniverso": 6026,
      "Ġcontribuy": 6027,
      "Ġcontribuir": 6028,
      "Ġrequerir": 6029,
      "Ġperfectamente": 6030,
      "Ġlight": 6031,
      "ĠActu": 6032,
      "Ġprobabilidades": 6033,
      "ĠrecomendÃ³": 6034,
      "TeorÃŃa": 6035,
      "Ġlecciones": 6036,
      "Ġclaros": 6037,
      "Ġesencial": 6038,
      "Ġeran": 6039,
      "ĠSanta": 6040,
      "Ġminimizar": 6041,
      "AMIL": 6042,
      "ĠðŁĵ": 6043,
      "ĠðŁĺ": 6044,
      "ĠinterpretaciÃ³n": 6045,
      "Ġresponsables": 6046,
      "ĠmodificaciÃ³n": 6047,
      "Ġnecesitamos": 6048,
      "Ġestablecer": 6049,
      "ĠenvÃŃo": 6050,
      "ĠAjustes": 6051,
      "Ġforzada": 6052,
      "Ġaleatorio": 6053,
      "Ġaleatorios": 6054,
      "Ġpantalla": 6055,
      "Ġllena": 6056,
      "Ġsomos": 6057,
      "Ġesfuer": 6058,
      "Ġesfuerzo": 6059,
      "Ġnacimiento": 6060,
      "Ġprovincias": 6061,
      "Ġcarreras": 6062,
      "Ġvalioso": 6063,
      "Impacto": 6064,
      "Ġfirme": 6065,
      "Ġrelevante": 6066,
      "Ġqueremos": 6067,
      "ĠmÃ©tricas": 6068,
      "ĠtransiciÃ³n": 6069,
      "Ġacerca": 6070,
      "ĠDirec": 6071,
      "Ġcambian": 6072,
      "Ġinspirados": 6073,
      "ĠPredicciÃ³n": 6074,
      "Ġconcisa": 6075,
      "ĠImagina": 6076,
      "Ġconflicto": 6077,
      "Ġdesconoci": 6078,
      "Ġarriba": 6079,
      "Ġnavegadores": 6080,
      "Ġseparador": 6081,
      "Ġcomunitaria": 6082,
      "Ġregistrar": 6083,
      "ĠSustitu": 6084,
      "Ġextendido": 6085,
      "Ġescalabilidad": 6086,
      "ĠAmbos": 6087,
      "ĠPerspectiva": 6088,
      "Ġopiniones": 6089,
      "Ġejecutar": 6090,
      "OptimizaciÃ³n": 6091,
      "ĠdÃ©bil": 6092,
      "directory": 6093,
      "Ġcomplementarios": 6094,
      "Ġcuestion": 6095,
      "ĠWordPress": 6096,
      "_)**.": 6097,
      "Ġlunares": 6098,
      "Ġlike": 6099,
      "Ġfloat": 6100,
      "Ġremoto": 6101,
      "Ġbreve": 6102,
      "ĠdispersiÃ³n": 6103,
      "Ġplacas": 6104,
      "ĠconversaciÃ³n": 6105,
      "Ġeficazmente": 6106,
      "Seguridad": 6107,
      "Ġilum": 6108,
      "omentum": 6109,
      "Ġinferior": 6110,
      "ĠAvanz": 6111,
      "Ġcinco": 6112,
      "Ġtalleres": 6113,
      "Ġbiliares": 6114,
      "ĠÃºltima": 6115,
      "Ġparedes": 6116,
      "ĠvÃ©rtic": 6117,
      "ĠEstablecer": 6118,
      "Ġmezcla": 6119,
      "Ġcircunstancias": 6120,
      "99999": 6121,
      "Ġcortocircuitos": 6122,
      "Ġreemplazar": 6123,
      "Ġdisfrutar": 6124,
      "Ġrestricciones": 6125,
      "Ġeliminar": 6126,
      "Ġdelimitador": 6127,
      "Ġcompetencia": 6128,
      "Ġresiliencia": 6129,
      "Ġcercanas": 6130,
      "Ġensayo": 6131,
      "Ġrigurosa": 6132,
      "ULL": 6133,
      "glish": 6134,
      "mÃ©todo": 6135,
      "Ġinputs": 6136,
      "Ġprotagonista": 6137,
      "aproxim": 6138,
      "ĠGenera": 6139,
      "ĠcojÃŃn": 6140,
      "LEMENTO": 6141,
      "ĠImaginemos": 6142,
      "ĠOrganizacional": 6143,
      "gebra": 6144,
      "ĠApliquÃ©": 6145,
      "ĠexÃ¡menes": 6146,
      "ĠportÃ¡til": 6147,
      "pertenece": 6148,
      "ĠjÃ³venes": 6149,
      "ĠBinomio": 6150,
      "ĠGoscinny": 6151,
      "ĠReemplazando": 6152,
      "ROPORCION": 6153,
      "ĠelectrodomÃ©stico": 6154,
      "Ġ60601": 6155,
      "ONENTE": 6156,
      "OMENTARIO": 6157,
      "AMILIA": 6158,
      "!\"": 6159,
      "!(\"": 6160,
      "';": 6161,
      "/--": 6162,
      "48": 6163,
      "55": 6164,
      "AN": 6165,
      "AplicaciÃ³n": 6166,
      "Co": 6167,
      "Cor": 6168,
      "Frecuencia": 6169,
      "IN": 6170,
      "Jo": 6171,
      "Mul": 6172,
      "Ofrec": 6173,
      "Quer": 6174,
      "Ries": 6175,
      "SÃŃ": 6176,
      "](": 6177,
      "].": 6178,
      "_{": 6179,
      "ago": 6180,
      "atalla": 6181,
      "cados": 6182,
      "cera": 6183,
      "cans": 6184,
      "df": 6185,
      "dantes": 6186,
      "eu": 6187,
      "fensa": 6188,
      "hm": 6189,
      "hesiÃ³n": 6190,
      "jidad": 6191,
      "mortem": 6192,
      "mÃŃnimo": 6193,
      "ng": 6194,
      "pin": 6195,
      "ql": 6196,
      "ron": 6197,
      "san": 6198,
      "sql": 6199,
      "tle": 6200,
      "tÃº": 6201,
      "voluciÃ³n": 6202,
      "ventajas": 6203,
      "ya": 6204,
      "zgo": 6205,
      "Çİ": 6206,
      "Ïī": 6207,
      "enviar": 6208,
      "est": 6209,
      "Ġdec": 6210,
      "Ġdejo": 6211,
      "Ġpues": 6212,
      "Ġpuer": 6213,
      "ĠĠĠčĊ": 6214,
      "cipl": 6215,
      "Ġlenta": 6216,
      "ariamente": 6217,
      "Ġcay": 6218,
      "Ġcele": 6219,
      "onio": 6220,
      "Ġsta": 6221,
      "ĠsÃ©": 6222,
      "Ġsir": 6223,
      "ĠsÃ³lo": 6224,
      "orge": 6225,
      "Ġetique": 6226,
      "adro": 6227,
      "rel": 6228,
      "repl": 6229,
      "remos": 6230,
      "rededor": 6231,
      "unar": 6232,
      "Ġlatitud": 6233,
      "ueba": 6234,
      "inflam": 6235,
      "Ġml": 6236,
      "Ġmol": 6237,
      "Ġmit": 6238,
      "telig": 6239,
      "**)": 6240,
      "Ġescrib": 6241,
      "trum": 6242,
      "ÃŃr": 6243,
      "ÃŃtro": 6244,
      "ÃŃez": 6245,
      "isti": 6246,
      "istar": 6247,
      "Ġelip": 6248,
      "Ġellas": 6249,
      "Ġconcre": 6250,
      "tamo": 6251,
      "tamos": 6252,
      "ĠnÃ¡": 6253,
      "Ġnada": 6254,
      "Ġnub": 6255,
      "Ġnube": 6256,
      "ĠningÃºn": 6257,
      "Ġdob": 6258,
      "Ġincon": 6259,
      "ĠintroducciÃ³n": 6260,
      "Ġft": 6261,
      "Ġfig": 6262,
      "Ġfab": 6263,
      "Ġfondos": 6264,
      "Ġparecer": 6265,
      "Ġhaci": 6266,
      "ĠhÃº": 6267,
      "Ġheur": 6268,
      "Ġhema": 6269,
      "Ġhull": 6270,
      "Ġsecon": 6271,
      "tuosa": 6272,
      "ĠEres": 6273,
      "ĠEquilibrio": 6274,
      "olviendo": 6275,
      "Ġreino": 6276,
      "Ġrevela": 6277,
      "Ã©tr": 6278,
      "Ã©rez": 6279,
      "entaciones": 6280,
      "Ġvan": 6281,
      "Ġvic": 6282,
      "Ġventajas": 6283,
      "Ġbuffer": 6284,
      "Ġbosque": 6285,
      "ĠAd": 6286,
      "ĠAplic": 6287,
      "tivaciÃ³n": 6288,
      "Ġaliv": 6289,
      "Ġaltura": 6290,
      "Ġaltamente": 6291,
      "izo": 6292,
      "cuito": 6293,
      "cuidado": 6294,
      "ĠLunar": 6295,
      "ĠPres": 6296,
      "ĠPÃ©rez": 6297,
      "rap": 6298,
      "plan": 6299,
      "Ġ(!": 6300,
      "Ġ(**": 6301,
      "igantes": 6302,
      "igQuer": 6303,
      "ĠCos": 6304,
      "ĠCam": 6305,
      "ĠColoca": 6306,
      "Ġguer": 6307,
      "Ġgana": 6308,
      "tero": 6309,
      "ĠSig": 6310,
      "ĠSem": 6311,
      "ĠSecu": 6312,
      "ĠSanti": 6313,
      "Ġsuce": 6314,
      "accion": 6315,
      "Ã¡stica": 6316,
      "empos": 6317,
      "ĠexplicaciÃ³n": 6318,
      "Ġdescentr": 6319,
      "Ġcompro": 6320,
      "ĠcompaÃ±": 6321,
      "Ġcompuesto": 6322,
      "local": 6323,
      "Ġpermis": 6324,
      "denado": 6325,
      "Ġreside": 6326,
      "Ġresistente": 6327,
      "Ġresuelve": 6328,
      "Ġpreferencias": 6329,
      "Ġtec": 6330,
      "Ġtiempos": 6331,
      "latitud": 6332,
      "ĠIf": 6333,
      "ĠIt": 6334,
      "ĠprÃ©s": 6335,
      "Ġcuales": 6336,
      "Ġcubre": 6337,
      "ĠrÃ©": 6338,
      "ĠrÃŃs": 6339,
      "ĠrÃŃg": 6340,
      "Ġrurales": 6341,
      "Ġsoporte": 6342,
      "ĠTO": 6343,
      "poca": 6344,
      "ieran": 6345,
      "ella": 6346,
      "eladas": 6347,
      "icaz": 6348,
      "gunda": 6349,
      "apa": 6350,
      "Ġtro": 6351,
      "Ġtrue": 6352,
      "Ġjun": 6353,
      "Ġacreed": 6354,
      "tenta": 6355,
      "tensiÃ³n": 6356,
      "Ġdiaria": 6357,
      "ĠDibond": 6358,
      "ĠDÃŃez": 6359,
      "ioso": 6360,
      "Ġespon": 6361,
      "Ãºmero": 6362,
      "tilicÃ©": 6363,
      "ĠURL": 6364,
      "ĠUtilicÃ©": 6365,
      "feras": 6366,
      "ĠEnglish": 6367,
      "ĠFu": 6368,
      "Ġsitios": 6369,
      "ĠdisoluciÃ³n": 6370,
      "ĠdisposiciÃ³n": 6371,
      "Ġ500": 6372,
      "Ġmanto": 6373,
      "Ġteniendo": 6374,
      "posiciones": 6375,
      "Ġinterf": 6376,
      "Ġintern": 6377,
      "Ġintermedi": 6378,
      "Ġinteracciones": 6379,
      "Ġintersec": 6380,
      "ĠBID": 6381,
      "ĠBatalla": 6382,
      "ĠBigQuer": 6383,
      "ĠHi": 6384,
      "ĠHo": 6385,
      "ĠHol": 6386,
      "ĠHistÃ³r": 6387,
      "ĠHaz": 6388,
      "ĠHuawei": 6389,
      "Ġposterior": 6390,
      "Ġsigma": 6391,
      "guero": 6392,
      "renta": 6393,
      "Ġmejorando": 6394,
      "Ġcamis": 6395,
      "Ġconsol": 6396,
      "Ġconsola": 6397,
      "Ġobject": 6398,
      "fecto": 6399,
      "enso": 6400,
      "timiento": 6401,
      "ĠAnalizamos": 6402,
      "aluz": 6403,
      "ĠGTA": 6404,
      "Ġmaestra": 6405,
      "Ġnecesito": 6406,
      "Ġciber": 6407,
      "ĠSevilla": 6408,
      "ĠopÃ§Ã": 6409,
      "ĠcapÃŃtulo": 6410,
      "ĠcrÃ³nico": 6411,
      "Ġcall": 6412,
      "para": 6413,
      "pares": 6414,
      "vex": 6415,
      "ĠControl": 6416,
      "ĠConclusiÃ³n": 6417,
      "Ġkg": 6418,
      "Ġkilos": 6419,
      "Ġimpul": 6420,
      "ĠReducciÃ³n": 6421,
      "Ġabajo": 6422,
      "Ġhabit": 6423,
      "Ġinvita": 6424,
      "ĠÃ¡mbi": 6425,
      "arazo": 6426,
      "Ġcasa": 6427,
      "ecimiento": 6428,
      "Ġpresentes": 6429,
      "Ġrow": 6430,
      "Ġcomunic": 6431,
      "ĠmediciÃ³n": 6432,
      "ĠmÃ©r": 6433,
      "ĠgeneralizaciÃ³n": 6434,
      "ĠbasÃ¡ndote": 6435,
      "ĠJava": 6436,
      "Ġofens": 6437,
      "2011": 6438,
      "Ġwant": 6439,
      "ultados": 6440,
      "Ġequip": 6441,
      "Ġequita": 6442,
      "Ġprofundos": 6443,
      "Ġplanetas": 6444,
      "Ġexpertos": 6445,
      "brid": 6446,
      "Ġllegado": 6447,
      "pecho": 6448,
      "Ġinser": 6449,
      "Ġinsight": 6450,
      "Ġinstrum": 6451,
      "Ġverse": 6452,
      "Ġverificar": 6453,
      "Ġhacen": 6454,
      "traron": 6455,
      "Ġconsideren": 6456,
      "Ġconsiderados": 6457,
      "imagen": 6458,
      "Ġseguras": 6459,
      "Ġvela": 6460,
      "Ġpermitiendo": 6461,
      "head": 6462,
      "Ġavances": 6463,
      "Ġprimario": 6464,
      "ucir": 6465,
      "Ġdosis": 6466,
      "Ġexplorando": 6467,
      "Ġcombinatoria": 6468,
      "Ġaprendido": 6469,
      "Ġaprendidas": 6470,
      "ation": 6471,
      "ĠhistÃ³rica": 6472,
      "tectar": 6473,
      "Ġjugada": 6474,
      "Ġdirecto": 6475,
      "Cons": 6476,
      "Consider": 6477,
      "Contratos": 6478,
      "Ġllevado": 6479,
      "ĠbotÃ³n": 6480,
      "Ġbotones": 6481,
      "ĠMedio": 6482,
      "ĠMetaanÃ¡lisis": 6483,
      "fÃŃo": 6484,
      "Ġcausales": 6485,
      "blit": 6486,
      "ultiplicador": 6487,
      "Ġrevolucion": 6488,
      "Ġtardar": 6489,
      "gramo": 6490,
      "ĠRecon": 6491,
      "ĠRecursos": 6492,
      "Ġcostos": 6493,
      "Ġestaba": 6494,
      "ĠtermodinÃ¡mica": 6495,
      "ĠDefin": 6496,
      "ĠDefiniciÃ³n": 6497,
      "ĠSuper": 6498,
      "riÃ³": 6499,
      "ĠWGS": 6500,
      "Ġutilizaron": 6501,
      "Ġemociones": 6502,
      "Ġnego": 6503,
      "Ġhijos": 6504,
      "ĠPodr": 6505,
      "Ġajuste": 6506,
      "ĠCarter": 6507,
      "Ġadecuados": 6508,
      "proces": 6509,
      "Ġsensores": 6510,
      "ĠmatemÃ¡tica": 6511,
      "ĠpequeÃ±as": 6512,
      "Ġliber": 6513,
      "Ġmoment": 6514,
      "ĠteÃ³rico": 6515,
      "Ġartistas": 6516,
      "ĠasegurÃ¡ndote": 6517,
      "ĠestratÃ©gico": 6518,
      "vistos": 6519,
      "Ġempleo": 6520,
      "passw": 6521,
      "ĠXX": 6522,
      "ĠindÃŃgen": 6523,
      "ocentes": 6524,
      "Ġconvergencia": 6525,
      "ĠdemÃ¡s": 6526,
      "Ġdisponibilidad": 6527,
      "Ġrelacionado": 6528,
      "TML": 6529,
      "âĢĶ": 6530,
      "Ġreflexiones": 6531,
      "ĠDiseÃ±o": 6532,
      "grupo": 6533,
      "Ġkilogramo": 6534,
      "\"></": 6535,
      "Ġelegido": 6536,
      "Ġmencionar": 6537,
      "ĠrÃ¡pida": 6538,
      "Ġmerece": 6539,
      "Ġdominios": 6540,
      "Ġbajar": 6541,
      "Ġgusto": 6542,
      "ĠSimetrÃŃa": 6543,
      "princip": 6544,
      "ĠinversiÃ³n": 6545,
      "Ġinversa": 6546,
      "Ġbioma": 6547,
      "Ġindividual": 6548,
      "Ġtablas": 6549,
      "ĠpÃºblica": 6550,
      "Ġelectricidad": 6551,
      "ombro": 6552,
      "Ġfavorecer": 6553,
      "ALIA": 6554,
      "ĠTengo": 6555,
      "Ġautocuidado": 6556,
      "Ġcontribuye": 6557,
      "ĠEvaluar": 6558,
      "Ġcercano": 6559,
      "Ġexhaustivo": 6560,
      "ĠpublicaciÃ³n": 6561,
      "Ġexpresado": 6562,
      "Ġdescubrimientos": 6563,
      "Ġindustrias": 6564,
      "Ġlector": 6565,
      "Ġacumul": 6566,
      "Ġparticularmente": 6567,
      "Ġeres": 6568,
      "Ã³lica": 6569,
      "Ġbloque": 6570,
      "ĠChile": 6571,
      "new": 6572,
      "ĠMatem": 6573,
      "Ġresponsabilidad": 6574,
      "Ġoscu": 6575,
      "Ġoscur": 6576,
      "ĠatmÃ³s": 6577,
      "ĠIdentific": 6578,
      "Ġpriorizar": 6579,
      "\">`:**": 6580,
      "Ġalternativa": 6581,
      "Ġantigua": 6582,
      "Ġfebrero": 6583,
      "Ġcapacidades": 6584,
      "ĠnumÃ©rico": 6585,
      "Ġpiedra": 6586,
      "Ġfirst": 6587,
      "Ġcompatible": 6588,
      "Ã¡ndol": 6589,
      "Ã¡ndolo": 6590,
      "Ġinfluyen": 6591,
      "Ġgarantiza": 6592,
      "Ġfomentar": 6593,
      "Ġeficacia": 6594,
      "Ġcomercio": 6595,
      "ĠPrincipio": 6596,
      "horro": 6597,
      "ĠÎ£": 6598,
      "Ġconciencia": 6599,
      "Ġventanas": 6600,
      "ĠquÃŃmicos": 6601,
      "InterpretaciÃ³n": 6602,
      "('\\": 6603,
      "ĠÏĢ": 6604,
      "Ġfrases": 6605,
      "Ġgenera": 6606,
      "Ġdistribuidos": 6607,
      "Ġfiloso": 6608,
      "Ġanteriores": 6609,
      "endario": 6610,
      "Ġsencilla": 6611,
      "ĠretroalimentaciÃ³n": 6612,
      "Ġsucesivos": 6613,
      "Ġpercibir": 6614,
      "Ġpositiva": 6615,
      "Ġpositivamente": 6616,
      "HEX": 6617,
      "ĠQuiero": 6618,
      "ĠAmbas": 6619,
      "ĠPlataform": 6620,
      "ĠperdÃ³n": 6621,
      "Ġimpresion": 6622,
      "ĠopiniÃ³n": 6623,
      "ĠmecÃ¡nica": 6624,
      "Ġcontac": 6625,
      "Ġdescriben": 6626,
      "Ġobtenemos": 6627,
      "ĠJulio": 6628,
      "ĠJulia": 6629,
      "Ġplayer": 6630,
      "entrenamiento": 6631,
      "producto": 6632,
      "ĠconformarÃ¡n": 6633,
      "Ġdirig": 6634,
      "ĠEcuaciones": 6635,
      "ĠtÃ©cnica": 6636,
      "ĠartÃŃculos": 6637,
      "Ġdeportivos": 6638,
      "Ġponer": 6639,
      "tienen": 6640,
      "ĠPDFs": 6641,
      "Ġronda": 6642,
      "Ġrespecto": 6643,
      "Ġinvolucrados": 6644,
      "ĠtelÃ©fono": 6645,
      "Ġgubernamental": 6646,
      "aliko": 6647,
      "Ġescuch": 6648,
      "Ġsorprendente": 6649,
      "ĠagrupaciÃ³n": 6650,
      "Ġdificultades": 6651,
      "Ġadministrador": 6652,
      "Tendencias": 6653,
      "ĠpÃ©lvico": 6654,
      "ĠSostenible": 6655,
      "Ġdescrito": 6656,
      "Ġenfatiza": 6657,
      "ĠJoh": 6658,
      "Ġsugerencias": 6659,
      "Desarrollo": 6660,
      "Ġempresariales": 6661,
      "Ġsacrificios": 6662,
      "ĠvegetaciÃ³n": 6663,
      "ĠnÃºcleo": 6664,
      "ĠaÃ±ad": 6665,
      "ĠPoniente": 6666,
      "ĠString": 6667,
      "ibunal": 6668,
      "ĠempezÃ³": 6669,
      "Investigador": 6670,
      "ĠcÃŃclicos": 6671,
      "Ġalcohol": 6672,
      "Ġmiedo": 6673,
      "Ġ**`<": 6674,
      "Ġrecreativas": 6675,
      "ĠdiÃ¡logo": 6676,
      "Ġsobrevivir": 6677,
      "Ġsobrecargas": 6678,
      "Ġintelectual": 6679,
      "Ġfuturos": 6680,
      "Muller": 6681,
      "Ofrecemos": 6682,
      "replace": 6683,
      "Ġmitad": 6684,
      "ÃŃtrofes": 6685,
      "Ġelipso": 6686,
      "ĠhÃºme": 6687,
      "Ġsecond": 6688,
      "Ġguerras": 6689,
      "ĠSantiago": 6690,
      "Ġpermisos": 6691,
      "ĠprÃ©stamo": 6692,
      "ĠrÃŃsografÃŃa": 6693,
      "Ġacreedores": 6694,
      "ĠintersecciÃ³n": 6695,
      "ĠBIDALIA": 6696,
      "ĠBigQuery": 6697,
      "Ġinsights": 6698,
      "password": 6699,
      "ĠindÃŃgenas": 6700,
      "principal": 6701,
      "![": 6702,
      "%)": 6703,
      "%**": 6704,
      "%)**": 6705,
      "')": 6706,
      "']": 6707,
      "(?": 6708,
      "(\\": 6709,
      ".)": 6710,
      "300": 6711,
      "45": 6712,
      "87": 6713,
      "95": 6714,
      "Cal": 6715,
      "Cre": 6716,
      "Camb": 6717,
      "CLASIFICACION": 6718,
      "DIRECTORY": 6719,
      "Em": 6720,
      "Educ": 6721,
      "Fun": 6722,
      "Factores": 6723,
      "ILE": 6724,
      "JustificaciÃ³n": 6725,
      "ND": 6726,
      "Neces": 6727,
      "OIN": 6728,
      "Po": 6729,
      "Pv": 6730,
      "Pla": 6731,
      "Publ": 6732,
      "QL": 6733,
      "Sec": 6734,
      "TH": 6735,
      "Tr": 6736,
      "Torn": 6737,
      "XIT": 6738,
      "aus": 6739,
      "ave": 6740,
      "bado": 6741,
      "bern": 6742,
      "back": 6743,
      "cap": 6744,
      "close": 6745,
      "dando": 6746,
      "domin": 6747,
      "dustr": 6748,
      "dulo": 6749,
      "dujo": 6750,
      "ep": 6751,
      "ela": 6752,
      "eja": 6753,
      "fk": 6754,
      "fr": 6755,
      "fget": 6756,
      "gil": 6757,
      "gia": 6758,
      "gimen": 6759,
      "hando": 6760,
      "iana": 6761,
      "itiva": 6762,
      "itual": 6763,
      "ke": 6764,
      "kg": 6765,
      "misiÃ³n": 6766,
      "momentum": 6767,
      "name": 6768,
      "nolencia": 6769,
      "nÃºmero": 6770,
      "oce": 6771,
      "opt": 6772,
      "ould": 6773,
      "pue": 6774,
      "ponde": 6775,
      "sal": 6776,
      "smo": 6777,
      "sible": 6778,
      "sqrt": 6779,
      "sivas": 6780,
      "ski": 6781,
      "tent": 6782,
      "tomas": 6783,
      "uiendo": 6784,
      "uimiento": 6785,
      "vski": 6786,
      "wp": 6787,
      "yS": 6788,
      "zgos": 6789,
      "}}{": 6790,
      "µes": 6791,
      "Â¡": 6792,
      "Ã¬": 6793,
      "ä»": 6794,
      "æĪ": 6795,
      "æī": 6796,
      "Ġig": 6797,
      "Ġul": 6798,
      "Ġia": 6799,
      "ĭæ": 6800,
      "dex": 6801,
      "deos": 6802,
      "demi": 6803,
      "eng": 6804,
      "ename": 6805,
      "ese": 6806,
      "eses": 6807,
      "Ġdeu": 6808,
      "Ġdetectar": 6809,
      "Ġpad": 6810,
      "Ġpin": 6811,
      "Ġpur": 6812,
      "Ġpuesto": 6813,
      "cios": 6814,
      "cipar": 6815,
      "cimientos": 6816,
      "Ġlum": 6817,
      "Ġlesiones": 6818,
      "arg": 6819,
      "ardar": 6820,
      "Ġcrec": 6821,
      "onido": 6822,
      "Ġsiz": 6823,
      "Ġais": 6824,
      "Ġatra": 6825,
      "Ġaper": 6826,
      "Ġaplica": 6827,
      "ĠahÃŃ": 6828,
      "organ": 6829,
      "orista": 6830,
      "tiempo": 6831,
      "Ġeta": 6832,
      "Ġedi": 6833,
      "ĠefÃŃ": 6834,
      "alum": 6835,
      "alibr": 6836,
      "adable": 6837,
      "adita": 6838,
      "undial": 6839,
      "andos": 6840,
      "antum": 6841,
      "inar": 6842,
      "Ġmig": 6843,
      "Ġmara": 6844,
      "teles": 6845,
      "Ã³nicos": 6846,
      "Ġend": 6847,
      "Ġenvi": 6848,
      "Ġentidades": 6849,
      "Ġestan": 6850,
      "Ġescribe": 6851,
      "tres": 6852,
      "ÃŃt": 6853,
      "ÃŃces": 6854,
      "ÃŃdas": 6855,
      "Ġelig": 6856,
      "Ġconten": 6857,
      "Ġconcentr": 6858,
      "Ġconvex": 6859,
      "toti": 6860,
      "todos": 6861,
      "toie": 6862,
      "topt": 6863,
      "idaciones": 6864,
      "tac": 6865,
      "taf": 6866,
      "tades": 6867,
      "Ġnerv": 6868,
      "roid": 6869,
      "Ġdil": 6870,
      "Ġdado": 6871,
      "Ġinn": 6872,
      "Ġfol": 6873,
      "Ġfama": 6874,
      "Ġfestiv": 6875,
      "Ġfclose": 6876,
      "Ġparado": 6877,
      "Ġparame": 6878,
      "Ġparser": 6879,
      "Ġhir": 6880,
      "Ġhombres": 6881,
      "Ġhomos": 6882,
      "Ġsedantes": 6883,
      "Ġcomentarios": 6884,
      "Ġcomandos": 6885,
      "ĠError": 6886,
      "ĠEficiencia": 6887,
      "Ġrep": 6888,
      "Ġrelo": 6889,
      "Ġrepor": 6890,
      "Ġrepen": 6891,
      "Ġrebus": 6892,
      "Ġoc": 6893,
      "usand": 6894,
      "amento": 6895,
      "ample": 6896,
      "ecciÃ³n": 6897,
      "Ġvamos": 6898,
      "Ġveci": 6899,
      "Ġvino": 6900,
      "Ġvital": 6901,
      "Ġvuel": 6902,
      "down": 6903,
      "resis": 6904,
      "Ġben": 6905,
      "Ġbio": 6906,
      "ĠAgen": 6907,
      "ĠAgru": 6908,
      "ĠAPI": 6909,
      "Ġtos": 6910,
      "ĠtÃ¡c": 6911,
      "Ġaltas": 6912,
      "izÃ¡s": 6913,
      "izada": 6914,
      "cuento": 6915,
      "cuestas": 6916,
      "ĠLim": 6917,
      "ĠLimitaciones": 6918,
      "ĠPos": 6919,
      "ĠPubl": 6920,
      "ĠPost": 6921,
      "illena": 6922,
      "plo": 6923,
      "plib": 6924,
      "plied": 6925,
      "iten": 6926,
      "itÃ©": 6927,
      "itales": 6928,
      "itores": 6929,
      "itho": 6930,
      "igh": 6931,
      "igna": 6932,
      "igÃ¼edad": 6933,
      "ĠCul": 6934,
      "ĠCÃ³mo": 6935,
      "ĠCamb": 6936,
      "ĠCrÃŃ": 6937,
      "abez": 6938,
      "Ġgente": 6939,
      "ĠgÃ©n": 6940,
      "Ġgui": 6941,
      "Ġsupuesto": 6942,
      "quen": 6943,
      "ibre": 6944,
      "acÃ¡": 6945,
      "acros": 6946,
      "iendas": 6947,
      "iensa": 6948,
      "emble": 6949,
      "fica": 6950,
      "Ġextin": 6951,
      "Ġexistente": 6952,
      "Ġexalum": 6953,
      "Ġdescen": 6954,
      "Ġdescrip": 6955,
      "Ġperro": 6956,
      "ĠperÃŃo": 6957,
      "umento": 6958,
      "ĠpoÃ©tica": 6959,
      "dai": 6960,
      "datorio": 6961,
      "Ġpueb": 6962,
      "Ġpref": 6963,
      "Ġlook": 6964,
      "iciembre": 6965,
      "ĠIEC": 6966,
      "Ġcuantas": 6967,
      "Ġcuadro": 6968,
      "Ã±ado": 6969,
      "Ġris": 6970,
      "Ġrival": 6971,
      "ĠTh": 6972,
      "ĠTiene": 6973,
      "ĠMA": 6974,
      "ĠMÃ¡s": 6975,
      "ĠMario": 6976,
      "ĠMendo": 6977,
      "ĠRob": 6978,
      "Ġ\\),": 6979,
      "Ġtried": 6980,
      "Ġacci": 6981,
      "Ġactivo": 6982,
      "Ġaconte": 6983,
      "tenimiento": 6984,
      "Ġdiario": 6985,
      "ĠDÃŃa": 6986,
      "ĠDel": 6987,
      "Ġmotor": 6988,
      "taron": 6989,
      "taria": 6990,
      "tariado": 6991,
      "mbr": 6992,
      "max": 6993,
      "ferir": 6994,
      "ĠNos": 6995,
      "ĠNin": 6996,
      "ĠNeces": 6997,
      "ĠNeuronales": 6998,
      "ĠNULL": 6999,
      "ĠEntiendo": 7000,
      "forme": 7001,
      "dicciÃ³n": 7002,
      "ĠFILE": 7003,
      "ĠdiscusiÃ³n": 7004,
      "turia": 7005,
      "Ġmano": 7006,
      "ificacion": 7007,
      "Ġaspir": 7008,
      "Ġasombro": 7009,
      "ĠBar": 7010,
      "ĠBÃºsqueda": 7011,
      "ĠBoy": 7012,
      "ĠHTML": 7013,
      "Ġposee": 7014,
      "Ġutil": 7015,
      "Ġentrega": 7016,
      "Ġcortos": 7017,
      "Ġcorpor": 7018,
      "Ġcortas": 7019,
      "trocin": 7020,
      "istal": 7021,
      "istado": 7022,
      "Ġcampes": 7023,
      "Ġconst": 7024,
      "Ġconstruc": 7025,
      "Ġconserv": 7026,
      "Ġconstitu": 7027,
      "Ġconsistente": 7028,
      "Ġeva": 7029,
      "Ġpais": 7030,
      "Ġpagos": 7031,
      "Ġsonido": 7032,
      "Ġgrad": 7033,
      "Ġgrados": 7034,
      "lecciÃ³n": 7035,
      "ĠAna": 7036,
      "ĠAnalizar": 7037,
      "ĠAnbern": 7038,
      "ĠGeo": 7039,
      "ĠGri": 7040,
      "Ġmater": 7041,
      "Ġmath": 7042,
      "Ġnecesariamente": 7043,
      "Ġlevan": 7044,
      "ĠSet": 7045,
      "Ġutilizadas": 7046,
      "peona": 7047,
      "Ġcarpe": 7048,
      "ugins": 7049,
      "Ġdebajo": 7050,
      "Ġdebate": 7051,
      "ĠĠĠĠĠĠĠĠĠĠĠĠĠĠĠĠĠĠĠ": 7052,
      "Ġcapaz": 7053,
      "entario": 7054,
      "Ġcriter": 7055,
      "ĠcalificaciÃ³n": 7056,
      "Ġcalendario": 7057,
      "Ġcreando": 7058,
      "Ġformar": 7059,
      "quie": 7060,
      "Ġdiferenci": 7061,
      "cargar": 7062,
      "Ġenfrenta": 7063,
      "Ã³rica": 7064,
      "ÃŃnsec": 7065,
      "cipaciÃ³n": 7066,
      "Ġkm": 7067,
      "Ġrespir": 7068,
      "Ġresponde": 7069,
      "Ġsimul": 7070,
      "Ġquantum": 7071,
      "metro": 7072,
      "iego": 7073,
      "ĠsintÃ©": 7074,
      "ĠRealicÃ©": 7075,
      "Ġabog": 7076,
      "compuesto": 7077,
      "Ġinformadas": 7078,
      "Ġaplican": 7079,
      "Ġaplicando": 7080,
      "ĠInici": 7081,
      "ĠON": 7082,
      "Ġhaga": 7083,
      "Ġcastel": 7084,
      "Ġmedicina": 7085,
      "Ġbasadas": 7086,
      "trasonido": 7087,
      "ĠinclusiÃ³n": 7088,
      "Ġincluido": 7089,
      "ĠComun": 7090,
      "ĠJorge": 7091,
      "ĠJOIN": 7092,
      "ĠSiempre": 7093,
      "ĠwÇĴ": 7094,
      "Ġwould": 7095,
      "Ġayudan": 7096,
      "housand": 7097,
      "Ġplato": 7098,
      "Ġregres": 7099,
      "Ġplane": 7100,
      "Ġplanta": 7101,
      "Ġefectividad": 7102,
      "Ġinsu": 7103,
      "Ġversos": 7104,
      "Ġespecie": 7105,
      "Ã³gn": 7106,
      "Ġpartido": 7107,
      "Ġseguros": 7108,
      "1024": 7109,
      "Ġfuera": 7110,
      "Ġpropon": 7111,
      "Ġraton": 7112,
      "uiÃ©n": 7113,
      "uidez": 7114,
      "ĠExper": 7115,
      "ongitud": 7116,
      "Ġ2030": 7117,
      "Ġ2022": 7118,
      "Ġactualizar": 7119,
      "Ġ$\\": 7120,
      "ĠhistÃ³rico": 7121,
      "ĠÃ©poca": 7122,
      "Ġobjetos": 7123,
      "rases": 7124,
      "Ġviabilidad": 7125,
      "example": 7126,
      "Ġproductivos": 7127,
      "ĠprÃ¡ctico": 7128,
      "eof": 7129,
      "tegias": 7130,
      "Control": 7131,
      "Ġcantidades": 7132,
      "Ġchec": 7133,
      "Ġchiste": 7134,
      "plementaciÃ³n": 7135,
      "Ġsecos": 7136,
      "Ġaproximadas": 7137,
      "Ġestructur": 7138,
      "Ġcomparaciones": 7139,
      "Ġcomparativo": 7140,
      "Ġincluya": 7141,
      "Ġavanzado": 7142,
      "terial": 7143,
      "Ġrevis": 7144,
      "Ġrevista": 7145,
      "ĠrevoluciÃ³n": 7146,
      "ulares": 7147,
      "rafo": 7148,
      "ĠRecono": 7149,
      "ĠafectÃ³": 7150,
      "Ġterres": 7151,
      "Ġterren": 7152,
      "buscando": 7153,
      "ĠlÃŃderes": 7154,
      "Ġrecomendar": 7155,
      "ĠPrecio": 7156,
      "ĠpolÃŃticos": 7157,
      "Ġinicialmente": 7158,
      "Ġdetalle": 7159,
      "Ġmultid": 7160,
      "Ġconocidos": 7161,
      "Ġhorno": 7162,
      "Ġemocionales": 7163,
      "ĠResumen": 7164,
      "ĠResultados": 7165,
      "Ġcierto": 7166,
      "derazgo": 7167,
      "ĠliberaciÃ³n": 7168,
      "tituto": 7169,
      "Ġparticipantes": 7170,
      "ciliaciÃ³n": 7171,
      "Ġcontrolar": 7172,
      "Ġfallar": 7173,
      "Ġfallecimiento": 7174,
      "ĠestratÃ©gicos": 7175,
      "Ġdefine": 7176,
      "ĠdinÃ¡stica": 7177,
      "atorio": 7178,
      "Ġllevaron": 7179,
      "ĠfÃŃsicamente": 7180,
      "ĠdesafÃŃo": 7181,
      "Ġadulta": 7182,
      "Ġadvers": 7183,
      "Ġfamilias": 7184,
      "Ġhubo": 7185,
      "ĠestarÃŃan": 7186,
      "Ġanalizaron": 7187,
      "ĠoperaciÃ³n": 7188,
      "Ġoperativos": 7189,
      "Ġthere": 7190,
      "onardo": 7191,
      "Ġnegro": 7192,
      "Ġcurva": 7193,
      "Ġaparece": 7194,
      "Ġaparentemente": 7195,
      "Ġpersonalidad": 7196,
      "Ġdesarrollaron": 7197,
      "Ġtransformar": 7198,
      "ujÄ«": 7199,
      "Ġlenguajes": 7200,
      "Ġvivienda": 7201,
      "valos": 7202,
      "Ġmonol": 7203,
      "ĠespaÃ±oles": 7204,
      "gnÃ³s": 7205,
      "Ġcabe": 7206,
      "Ġdominada": 7207,
      "itorear": 7208,
      "idez": 7209,
      "ĠbÃ¡sicos": 7210,
      "Ġtalento": 7211,
      "ĠMonitoreo": 7212,
      "Ġindividu": 7213,
      "Ġindividuos": 7214,
      "tÃ³nicas": 7215,
      "Ġtabulares": 7216,
      "Ġlogros": 7217,
      "ĠcuadrÃ¡tico": 7218,
      "ĠÃ³ptimos": 7219,
      "Ġvoid": 7220,
      "ĠgeografÃŃa": 7221,
      "Ġzona": 7222,
      "ĠpsicologÃŃa": 7223,
      "Recon": 7224,
      "iths": 7225,
      "ĠcÃŃrculos": 7226,
      "etidos": 7227,
      "Ġlegis": 7228,
      "Ġlegible": 7229,
      "ĠmÃºsica": 7230,
      "ĠEvaluamos": 7231,
      "Ġrequer": 7232,
      "Ġperfecta": 7233,
      "ĠObjetivo": 7234,
      "ĠprÃ³xima": 7235,
      "Ġmostrar": 7236,
      "Ġescap": 7237,
      "Ġescuela": 7238,
      "Ġrecordatorio": 7239,
      "ĠAcceso": 7240,
      "Ġconsultas": 7241,
      "Ġrecomendaciones": 7242,
      "Ġmencionadas": 7243,
      "PredicciÃ³n": 7244,
      "Ġiss": 7245,
      "Ġfacilitar": 7246,
      "ĠPermite": 7247,
      "ĠCalcular": 7248,
      "Ġrespetuosa": 7249,
      "ĠTransform": 7250,
      "Ġrefinar": 7251,
      "Ġlineales": 7252,
      "Ġrevelado": 7253,
      "ĠminimÃŃz": 7254,
      "Ġdedicado": 7255,
      "Ġredis": 7256,
      "Ġgravedad": 7257,
      "Ġextremo": 7258,
      "Ġdestaca": 7259,
      "ĠMaxwell": 7260,
      "Ġtrascen": 7261,
      "Ġtrastornos": 7262,
      "ĠcientÃŃficos": 7263,
      "Ġpropiedad": 7264,
      "Ġresponsabilidades": 7265,
      "Ġfinanciera": 7266,
      "Ġfinanciero": 7267,
      "Ġfinanciamiento": 7268,
      "Ġfinancieros": 7269,
      "Ġurbana": 7270,
      "ĠagregaciÃ³n": 7271,
      "Ġderiva": 7272,
      "Ġconductivismo": 7273,
      "Ġantigu": 7274,
      "Ġdividido": 7275,
      "Ġinfluenci": 7276,
      "Ġsostenible": 7277,
      "Ġsostenibles": 7278,
      "ĠMayas": 7279,
      "ImplementaciÃ³n": 7280,
      "Ġpiezas": 7281,
      "tismo": 7282,
      "Ġincorporar": 7283,
      "ĠincorporaciÃ³n": 7284,
      "Ġfluidez": 7285,
      "Ã¡ndonos": 7286,
      "clases": 7287,
      "macenamiento": 7288,
      "ResoluciÃ³n": 7289,
      "ĠmÃŃnimo": 7290,
      "Ġrenal": 7291,
      "ĠAndroid": 7292,
      "Ġqueridos": 7293,
      "Ġequival": 7294,
      "Ġcomercial": 7295,
      "ĠrecuperaciÃ³n": 7296,
      "Ġterrorista": 7297,
      "Ġgotero": 7298,
      "Ġacercarse": 7299,
      "ĠNÃºmero": 7300,
      "ĠPredictivos": 7301,
      "ĠPrincipado": 7302,
      "Ġreflejen": 7303,
      "Uniformes": 7304,
      "ĠÎµ": 7305,
      "ĠÎĶl": 7306,
      "Ġlider": 7307,
      "Ġmuestro": 7308,
      "Ġleerlo": 7309,
      "ÇĴujÄ«": 7310,
      "Ġconectar": 7311,
      "Ġdiagrama": 7312,
      "Ġjaque": 7313,
      "ĠSeleccionar": 7314,
      "Ġtratamientos": 7315,
      "CuÃ¡les": 7316,
      "Ġfrecuentes": 7317,
      "Ġfrecuentemente": 7318,
      "ĠTemporal": 7319,
      "files": 7320,
      "filename": 7321,
      "Ġreemplaz": 7322,
      "Ġexacta": 7323,
      "---|---|": 7324,
      "Ġmantenimiento": 7325,
      "Ġciudadana": 7326,
      "Ġbrindar": 7327,
      "ĠBox": 7328,
      "Ġlucha": 7329,
      "Ġrepeticiones": 7330,
      "player": 7331,
      "Ġdesapareci": 7332,
      "Ġimpreso": 7333,
      "ĠDiver": 7334,
      "ĠComplejidad": 7335,
      "ĠExplora": 7336,
      "Ġaventuras": 7337,
      "Ġcontamin": 7338,
      "ĠTerap": 7339,
      "Ġdiscutir": 7340,
      "ĠclÃ¡sico": 7341,
      "ĠenfocÃ¡ndose": 7342,
      "ĠWordpress": 7343,
      "PSG": 7344,
      "arning": 7345,
      "ĠsÃŃntomas": 7346,
      "Ġadopt": 7347,
      "Ġcontradic": 7348,
      "Ġfopen": 7349,
      "Ġdeseada": 7350,
      "ĠtendrÃ¡": 7351,
      "Ġtransparente": 7352,
      "Ġmisterio": 7353,
      "ĠartÃŃculo": 7354,
      "Ġmostrado": 7355,
      "Ġmostrando": 7356,
      "Ġcucharadita": 7357,
      "ffiths": 7358,
      "ĠpÃ¡g": 7359,
      "ĠpÃ¡r": 7360,
      "Ġllu": 7361,
      "Ġllam": 7362,
      "ĠincÃ³gn": 7363,
      "Ġfamoso": 7364,
      "ĠhÃ¡b": 7365,
      "ĠhÃ¡bil": 7366,
      "Ġdesigualdades": 7367,
      "Ġpronunci": 7368,
      "ĠestadÃŃstica": 7369,
      "Ġargentino": 7370,
      "Ġcognitivos": 7371,
      "Ġcoloca": 7372,
      "Ġcompromete": 7373,
      "ĠacadÃ©micas": 7374,
      "ĠacadÃ©mico": 7375,
      "Argentina": 7376,
      "Ġconsejos": 7377,
      "Ġfraude": 7378,
      "ĠparalelizaciÃ³n": 7379,
      "Ġcomenz": 7380,
      "ĠAbsoluta": 7381,
      "Ġpotencia": 7382,
      "ĠRegex": 7383,
      "Ġaccesibilidad": 7384,
      "Ġmaximizar": 7385,
      "ĠautenticaciÃ³n": 7386,
      "Ġrazonamiento": 7387,
      "Ġbrillantes": 7388,
      "ĠAjustarÃ©": 7389,
      "MAE": 7390,
      "Ġlibros": 7391,
      "Ġencabez": 7392,
      "ĠintrÃŃnsec": 7393,
      "Ġhalla": 7394,
      "ĠSeries": 7395,
      "Ġacademia": 7396,
      "Ġcorriente": 7397,
      "Ġoptarg": 7398,
      "Ġintegrable": 7399,
      "Ġverdadera": 7400,
      "Ġaudiencia": 7401,
      "Ġindependientemente": 7402,
      "Ġarquitectura": 7403,
      "fundidos": 7404,
      "Ġ!=": 7405,
      "Ġpudiera": 7406,
      "Ġlarga": 7407,
      "tegraciÃ³n": 7408,
      "Ġoficialmente": 7409,
      "ĠAztecas": 7410,
      "ĠAumentar": 7411,
      "ĠAgrega": 7412,
      "Ġresueltos": 7413,
      "ĠacompaÃ±": 7414,
      "ĠFrancia": 7415,
      "ĠasignaciÃ³n": 7416,
      "ĠInstituto": 7417,
      "IncorporaciÃ³n": 7418,
      "Ġhorizonte": 7419,
      "ReflexiÃ³n": 7420,
      "ĠconvirtiÃ³": 7421,
      "Ġrecopilar": 7422,
      "Mejora": 7423,
      "Ġimprimir": 7424,
      "ĠmetodologÃŃa": 7425,
      "COUC": 7426,
      "Sigue": 7427,
      "yundai": 7428,
      "remote": 7429,
      "Ġencima": 7430,
      "ĠintrospecciÃ³n": 7431,
      "Ġfrutas": 7432,
      "Ġvibraciones": 7433,
      "ĠproporciÃ³n": 7434,
      "ĠSensibilidad": 7435,
      "Ġsuministro": 7436,
      "ĠBehavior": 7437,
      "ĠBrin": 7438,
      "ĠorientaciÃ³n": 7439,
      "Ġcolegas": 7440,
      "Ġabierta": 7441,
      "ĠIncluye": 7442,
      "Ġsupervivencia": 7443,
      "Ġestadounidense": 7444,
      "ĠKafk": 7445,
      "ĠSustituyendo": 7446,
      "Copa": 7447,
      "Riesgos": 7448,
      "canso": 7449,
      "ĠcayÃ³": 7450,
      "Ġcelebr": 7451,
      "Ġfabric": 7452,
      "Ġhematuria": 7453,
      "Ġaliviar": 7454,
      "ĠLunarejos": 7455,
      "rapido": 7456,
      "ĠCosmos": 7457,
      "ĠrÃ©gimen": 7458,
      "ĠrÃŃgrafÃŃa": 7459,
      "ĠFuturo": 7460,
      "ĠHold": 7461,
      "ĠÃ¡mbito": 7462,
      "bridge": 7463,
      "Consideraciones": 7464,
      "Torneo": 7465,
      "fgets": 7466,
      "æĪĳ": 7467,
      "æīĭæ": 7468,
      "Ġultrasonido": 7469,
      "Ġpadres": 7470,
      "Ġsizeof": 7471,
      "Ġetapa": 7472,
      "ĠefÃŃmer": 7473,
      "alibraciÃ³n": 7474,
      "toievski": 7475,
      "Ġreloj": 7476,
      "ĠAgenda": 7477,
      "ithout": 7478,
      "ĠMendoza": 7479,
      "Ġacontecimientos": 7480,
      "Ġaspiraciones": 7481,
      "ĠBoyacÃ¡": 7482,
      "ĠAnbernic": 7483,
      "ĠGriffiths": 7484,
      "peonato": 7485,
      "Ġcastell": 7486,
      "ĠReconoce": 7487,
      "gnÃ³stico": 7488,
      "ĠminimÃŃzala": 7489,
      "Ġencabezado": 7490,
      "COUCHE": 7491,
      "ĠKafka": 7492,
      "\"\"": 7493,
      "$.": 7494,
      "%*": 7495,
      "%.": 7496,
      "%).": 7497,
      "%),": 7498,
      "'t": 7499,
      "');": 7500,
      "'},": 7501,
      "((": 7502,
      "({": 7503,
      "52": 7504,
      "54": 7505,
      "67": 7506,
      "69": 7507,
      "616": 7508,
      "As": 7509,
      "AquÃŃ": 7510,
      "Ajus": 7511,
      "Bus": 7512,
      "Cam": 7513,
      "Ejercici": 7514,
      "Fi": 7515,
      "Facil": 7516,
      "FantasÃŃa": 7517,
      "GestiÃ³n": 7518,
      "GAR": 7519,
      "IB": 7520,
      "Linux": 7521,
      "Ley": 7522,
      "Limitaciones": 7523,
      "ME": 7524,
      "MSE": 7525,
      "RI": 7526,
      "So": 7527,
      "Stre": 7528,
      "SON": 7529,
      "STOCK": 7530,
      "Table": 7531,
      "Tierra": 7532,
      "TÄģ": 7533,
      "VA": 7534,
      "Ver": 7535,
      "Val": 7536,
      "Via": 7537,
      "[%*": 7538,
      "_-": 7539,
      "__": 7540,
      "aÃ§Ã": 7541,
      "bÃ³n": 7542,
      "bles": 7543,
      "dor": 7544,
      "dibilidad": 7545,
      "dizaje": 7546,
      "eamente": 7547,
      "fe": 7548,
      "fondo": 7549,
      "ges": 7550,
      "gin": 7551,
      "gando": 7552,
      "gido": 7553,
      "gicas": 7554,
      "gestiÃ³n": 7555,
      "hum": 7556,
      "ijas": 7557,
      "iÇİ": 7558,
      "juntos": 7559,
      "kin": 7560,
      "kara": 7561,
      "laciÃ³n": 7562,
      "lich": 7563,
      "mir": 7564,
      "mico": 7565,
      "menta": 7566,
      "menes": 7567,
      "ni": 7568,
      "nk": 7569,
      "nl": 7570,
      "nidad": 7571,
      "ndic": 7572,
      "oide": 7573,
      "oks": 7574,
      "operaciÃ³n": 7575,
      "py": 7576,
      "pti": 7577,
      "pano": 7578,
      "puestos": 7579,
      "raciÃ³n": 7580,
      "sas": 7581,
      "sin": 7582,
      "tch": 7583,
      "tÃŃn": 7584,
      "ure": 7585,
      "uticas": 7586,
      "vor": 7587,
      "vol": 7588,
      "vÃŃa": 7589,
      "vel": 7590,
      "wb": 7591,
      "ws": 7592,
      "way": 7593,
      "yam": 7594,
      "ysis": 7595,
      "âĪ": 7596,
      "åģ": 7597,
      "çļ": 7598,
      "Ġib": 7599,
      "Ġign": 7600,
      "įndic": 7601,
      "deja": 7602,
      "depen": 7603,
      "decib": 7604,
      "ende": 7605,
      "enti": 7606,
      "enaz": 7607,
      "este": 7608,
      "estros": 7609,
      "estivos": 7610,
      "esgue": 7611,
      "osÃ³": 7612,
      "Ġpm": 7613,
      "Ġpun": 7614,
      "ĠpÃŃ": 7615,
      "Ġpies": 7616,
      "Ġpilar": 7617,
      "Ġpiensa": 7618,
      "cientes": 7619,
      "Ġliv": 7620,
      "Ġlema": 7621,
      "ary": 7622,
      "argum": 7623,
      "ase": 7624,
      "asia": 7625,
      "ont": 7626,
      "onÃ³m": 7627,
      "onomÃŃa": 7628,
      "Ġst": 7629,
      "ĠsesiÃ³n": 7630,
      "Ġstock": 7631,
      "Ġatrib": 7632,
      "ĠaÃ±a": 7633,
      "orig": 7634,
      "tima": 7635,
      "Ã³om": 7636,
      "Ã³digo": 7637,
      "Ã³dulo": 7638,
      "Ġec": 7639,
      "ale": 7640,
      "alo": 7641,
      "alas": 7642,
      "almacen": 7643,
      "read": 7644,
      "unlog": 7645,
      "anÃŃa": 7646,
      "ance": 7647,
      "anismo": 7648,
      "anzas": 7649,
      "inta": 7650,
      "Ġmg": 7651,
      "Ġmente": 7652,
      "Ġmueve": 7653,
      "Ġmapa": 7654,
      "tear": 7655,
      "tedes": 7656,
      "teel": 7657,
      "tequil": 7658,
      "Ġenten": 7659,
      "acitaciÃ³n": 7660,
      "ics": 7661,
      "Ġesque": 7662,
      "Ġescon": 7663,
      "Ġunirse": 7664,
      "ombr": 7665,
      "ÃŃcola": 7666,
      "ismos": 7667,
      "istir": 7668,
      "Ã¡mbr": 7669,
      "Ġelong": 7670,
      "Ġelige": 7671,
      "Ġelijas": 7672,
      "Ġcontar": 7673,
      "Ġconces": 7674,
      "Ġconducir": 7675,
      "Ġcondena": 7676,
      "idd": 7677,
      "idal": 7678,
      "idimensional": 7679,
      "Ġquem": 7680,
      "Ġqueda": 7681,
      "let": 7682,
      "Ġnomin": 7683,
      "Ġnombres": 7684,
      "Ġdas": 7685,
      "Ġdor": 7686,
      "Ġdime": 7687,
      "Ġina": 7688,
      "Ġfocales": 7689,
      "Ġparcial": 7690,
      "Ġparciales": 7691,
      "imentos": 7692,
      "imlich": 7693,
      "Ġhos": 7694,
      "ĠhâĤĻ": 7695,
      "Ġhambre": 7696,
      "Ġhizo": 7697,
      "Ġsemi": 7698,
      "Ġsecar": 7699,
      "Ġcomando": 7700,
      "Ġcomida": 7701,
      "ĠEle": 7702,
      "ĠElec": 7703,
      "ĠEXIT": 7704,
      "ĠEPSG": 7705,
      "Ġreun": 7706,
      "Ġrece": 7707,
      "Ġreproduc": 7708,
      "Ã©rea": 7709,
      "Ġofer": 7710,
      "usa": 7711,
      "ush": 7712,
      "useas": 7713,
      "ustez": 7714,
      "amer": 7715,
      "Ġvin": 7716,
      "ĠvÃŃn": 7717,
      "Ġvidas": 7718,
      "Ġvola": 7719,
      "Ġvuelve": 7720,
      "Ġpropa": 7721,
      "Ġproced": 7722,
      "Ġbinario": 7723,
      "ĠAle": 7724,
      "ĠAsi": 7725,
      "ĠAire": 7726,
      "ĠtÃ³": 7727,
      "Ġtarro": 7728,
      "Ġtono": 7729,
      "tividades": 7730,
      "Ġalambre": 7731,
      "Ġalinea": 7732,
      "Ġalrededor": 7733,
      "culas": 7734,
      "ĠLan": 7735,
      "ĠLeb": 7736,
      "ĠLÃŃnea": 7737,
      "ĠPy": 7738,
      "ĠPROPORCION": 7739,
      "ĠClas": 7740,
      "ĠClara": 7741,
      "ĠCOMENTARIO": 7742,
      "ĠCÃ³digo": 7743,
      "ĠgâĤĻ": 7744,
      "Ġgigantes": 7745,
      "tera": 7746,
      "teras": 7747,
      "terÃŃa": 7748,
      "ĠSÃ¡n": 7749,
      "ĠSistemas": 7750,
      "ĠSTOCK": 7751,
      "ĠSteel": 7752,
      "Ġsuf": 7753,
      "Ġsup": 7754,
      "Ġsuave": 7755,
      "acer": 7756,
      "acta": 7757,
      "ienven": 7758,
      "Ã¡sticas": 7759,
      "ement": 7760,
      "Ġ225": 7761,
      "Ġextr": 7762,
      "Ġexce": 7763,
      "Ġexteri": 7764,
      "diciÃ³n": 7765,
      "diciones": 7766,
      "Ġdesp": 7767,
      "ĠdescripciÃ³n": 7768,
      "motivaciÃ³n": 7769,
      "lockchain": 7770,
      "loader": 7771,
      "Ġperdido": 7772,
      "denci": 7773,
      "denas": 7774,
      "dental": 7775,
      "ĠEspe": 7776,
      "ĠEstruc": 7777,
      "umn": 7778,
      "Ġpobre": 7779,
      "Ġpoca": 7780,
      "Ġpodas": 7781,
      "Ġreson": 7782,
      "Ġprecar": 7783,
      "Ġpremium": 7784,
      "Ġprevistos": 7785,
      "Ġnot": 7786,
      "Ġnotable": 7787,
      "porÃ¡n": 7788,
      "Ġlobo": 7789,
      "iobra": 7790,
      "Ġtele": 7791,
      "ĠteorÃŃas": 7792,
      "Ġtecho": 7793,
      "traumÃ¡tico": 7794,
      "uch": 7795,
      "Ġimper": 7796,
      "Ġimplic": 7797,
      "ĠIgu": 7798,
      "Ġpros": 7799,
      "Ġprueba": 7800,
      "Ġseria": 7801,
      "ĠserÃ¡n": 7802,
      "Ġcuan": 7803,
      "Ġcuidad": 7804,
      "Ġcuentas": 7805,
      "Ġuse": 7806,
      "Ġusarse": 7807,
      "Ġustedes": 7808,
      "Ġri": 7809,
      "Ġrun": 7810,
      "ĠTar": 7811,
      "ĠTal": 7812,
      "ders": 7813,
      "poyo": 7814,
      "perparÃ¡metros": 7815,
      "ierÃŃa": 7816,
      "ĠMic": 7817,
      "ĠMil": 7818,
      "ĠMuy": 7819,
      "ĠMuestra": 7820,
      "ĠMundo": 7821,
      "ĠMag": 7822,
      "Ġ|--------": 7823,
      "Ġ|---|---|": 7824,
      "ĠRies": 7825,
      "Ġangular": 7826,
      "Ġ\\\\": 7827,
      "tanto": 7828,
      "Ġtrono": 7829,
      "Ġji": 7830,
      "Ġjur": 7831,
      "Ġactores": 7832,
      "Ġactitud": 7833,
      "tentamente": 7834,
      "tendido": 7835,
      "ĠDer": 7836,
      "ĠDime": 7837,
      "Ġ440": 7838,
      "drome": 7839,
      "Ġmoda": 7840,
      "Ġespir": 7841,
      "Ġespejo": 7842,
      "tilos": 7843,
      "ĠUso": 7844,
      "ĠUsar": 7845,
      "Ġestaciones": 7846,
      "Ġestrel": 7847,
      "Ġarg": 7848,
      "ĠNa": 7849,
      "ĠNaciones": 7850,
      "ĠNues": 7851,
      "ĠEnfoque": 7852,
      "conjuntos": 7853,
      "ĠFato": 7854,
      "ĠFAMILIA": 7855,
      "Ã¡nico": 7856,
      "Ġdistancias": 7857,
      "Ġdispuesto": 7858,
      "Ġdispuestos": 7859,
      "Ġsobreviv": 7860,
      "recto": 7861,
      "recciÃ³n": 7862,
      "ĠpodrÃŃamos": 7863,
      "Ġdata": 7864,
      "Ġmantequil": 7865,
      "Ġtengas": 7866,
      "Ġinternet": 7867,
      "Ġinteriores": 7868,
      "Ġinterferir": 7869,
      "ĠElabora": 7870,
      "ĠBayesi": 7871,
      "ĠHub": 7872,
      "ĠHoy": 7873,
      "ĠHyundai": 7874,
      "ĠpostraumÃ¡tico": 7875,
      "cesos": 7876,
      "Ġutia": 7877,
      "erato": 7878,
      "Ġmejorada": 7879,
      "Ġ`\"": 7880,
      "ches": 7881,
      "cholog": 7882,
      "chez": 7883,
      "istad": 7884,
      "ĠcampaÃ±a": 7885,
      "Ġconsciente": 7886,
      "Ġevitando": 7887,
      "ĠUnivers": 7888,
      "Ġpath": 7889,
      "ensor": 7890,
      "Ġgris": 7891,
      "Ġgrasas": 7892,
      "uyen": 7893,
      "uyentes": 7894,
      "ĠAngular": 7895,
      "ĠAnalicÃ©": 7896,
      "ĠGestiÃ³n": 7897,
      "ĠGru": 7898,
      "ĠGracias": 7899,
      "Ġ64": 7900,
      "Ġ65": 7901,
      "Ġlee": 7902,
      "ĠSea": 7903,
      "ĠSegunda": 7904,
      "Ġutilizarse": 7905,
      "cedimiento": 7906,
      "estiga": 7907,
      "ĠcarbÃ³n": 7908,
      "ugador": 7909,
      "Ġplugins": 7910,
      "Ġcruj": 7911,
      "Ġcristi": 7912,
      "Ġcalor": 7913,
      "Ġcalientes": 7914,
      "Ġcredibilidad": 7915,
      "taban": 7916,
      "novedad": 7917,
      "ximo": 7918,
      "ĠConfianza": 7919,
      "ĠCondenado": 7920,
      "Ġkey": 7921,
      "ĠkÃ³om": 7922,
      "Ġimpunidad": 7923,
      "Ġpersonales": 7924,
      "ĠpersonalizaciÃ³n": 7925,
      "Ġrespal": 7926,
      "Ġclon": 7927,
      "Ġclones": 7928,
      "Ġsimb": 7929,
      "Ġsimilitudes": 7930,
      "Ġcoci": 7931,
      "Ġcobre": 7932,
      "Ġcocin": 7933,
      "Ġcould": 7934,
      "ĠRevis": 7935,
      "Ġ+=": 7936,
      "Ġabierto": 7937,
      "Ġpasan": 7938,
      "Ġinformacion": 7939,
      "ĠhabÃŃan": 7940,
      "ĠInv": 7941,
      "ĠInver": 7942,
      "ĠIntenta": 7943,
      "ĠÃ¡gil": 7944,
      "Ġrefuerzo": 7945,
      "Ġ{\"": 7946,
      "Ġseleccionar": 7947,
      "Ġcae": 7948,
      "ĠmenÃºs": 7949,
      "ĠVi": 7950,
      "ĠVinci": 7951,
      "ĠVillena": 7952,
      "Ġexplica": 7953,
      "ĠComprender": 7954,
      "ĠJama": 7955,
      "ĠJames": 7956,
      "ĠJSON": 7957,
      "iesta": 7958,
      "2024": 7959,
      "Ġwri": 7960,
      "Ġwork": 7961,
      "Ġtransf": 7962,
      "ĠtransacciÃ³n": 7963,
      "Ġ800": 7964,
      "Ġ830": 7965,
      "Ġplaus": 7966,
      "Ġregulaciones": 7967,
      "Ġplano": 7968,
      "Ġejemplar": 7969,
      "Ġtang": 7970,
      "texto": 7971,
      "Ġdivide": 7972,
      "Ġcolon": 7973,
      "Ġcoluna": 7974,
      "Ġparticipar": 7975,
      "Ã©rico": 7976,
      "Ã©rgicas": 7977,
      "Ġpropuesta": 7978,
      "Ġproporcionada": 7979,
      "Ġsupervis": 7980,
      "ĠsuperposiciÃ³n": 7981,
      "Ġpermita": 7982,
      "150": 7983,
      "Ġinvestigaciones": 7984,
      "Ġrayos": 7985,
      "ĠraÃŃces": 7986,
      "Ġapropi": 7987,
      "Ġexplorarse": 7988,
      "Ins": 7989,
      "Informe": 7990,
      "ĠadaptÃ¡n": 7991,
      "Ġembarazo": 7992,
      "Ġcombinarse": 7993,
      "Ġamistad": 7994,
      "Ġestudiar": 7995,
      "Ġactuar": 7996,
      "ĠhistÃ³ricas": 7997,
      "Ġ['": 7998,
      "Ġ[-": 7999,
      "ĠDesafÃŃos": 8000,
      "Ġviude": 8001,
      "Ġvikin": 8002,
      "exualidad": 8003,
      "lexibilidad": 8004,
      "Ġproduce": 8005,
      "Ġproductivo": 8006,
      "ĠideologÃŃa": 8007,
      "Config": 8008,
      "Ġtomando": 8009,
      "Ġlimitar": 8010,
      "Ġlimpieza": 8011,
      "ĠlimÃŃtrofes": 8012,
      "Ġchunk": 8013,
      "Ġllevando": 8014,
      "Ġsecre": 8015,
      "ĠinflaciÃ³n": 8016,
      "Ġinflam": 8017,
      "Ġbuscas": 8018,
      "Ġmiles": 8019,
      "teriales": 8020,
      "ĠautÃ©n": 8021,
      "ĠautonomÃŃa": 8022,
      "Ġtardan": 8023,
      "Ġcerca": 8024,
      "ĠcertificaciÃ³n": 8025,
      "Ġseguimiento": 8026,
      "gramas": 8027,
      "ĠPueden": 8028,
      "ĠRecalibraciÃ³n": 8029,
      "ponentes": 8030,
      "Ġcosa": 8031,
      "Ġhacerle": 8032,
      "Ġafecto": 8033,
      "Ġresolverse": 8034,
      "Ġrepresentan": 8035,
      "408": 8036,
      "ĠPrevenciÃ³n": 8037,
      "Ġsube": 8038,
      "Ġsubtar": 8039,
      "Ġsubconjuntos": 8040,
      "ĠDetermin": 8041,
      "ĠpolÃŃtico": 8042,
      "Ġiniciar": 8043,
      "ĠambigÃ¼edad": 8044,
      "Ġcaracteres": 8045,
      "Ġcaracteriza": 8046,
      "Ġ1936": 8047,
      "Ġespacial": 8048,
      "Ġvisit": 8049,
      "Entren": 8050,
      "Encuestas": 8051,
      "Ġemoj": 8052,
      "ĠneumÃ¡tico": 8053,
      "ĠPodemos": 8054,
      "Ġpoderoso": 8055,
      "ĠResoluciÃ³n": 8056,
      "ĠResolviendo": 8057,
      "Ġcierta": 8058,
      "ReducciÃ³n": 8059,
      "ĠCaracter": 8060,
      "ĠcuÃ¡nticas": 8061,
      "Ġautores": 8062,
      "ĠsensaciÃ³n": 8063,
      "titudes": 8064,
      "Ġeducadores": 8065,
      "ĠMartÃŃn": 8066,
      "ĠclasificaciÃ³n": 8067,
      "ĠestratÃ©gicas": 8068,
      "()`.": 8069,
      "ĠLeonardo": 8070,
      "Ġdetermina": 8071,
      "Ġequilibrado": 8072,
      "ĠfÃŃsicos": 8073,
      "ĠdesafÃŃa": 8074,
      "blemente": 8075,
      "ĠXV": 8076,
      "onedas": 8077,
      "Ġadul": 8078,
      "Ġmuseo": 8079,
      "Ġdemostrar": 8080,
      "ĠAsign": 8081,
      "ĠlogÃŃstica": 8082,
      "haskara": 8083,
      "Ġthese": 8084,
      "Ġlimitados": 8085,
      "DesafÃŃos": 8086,
      "Desventajas": 8087,
      "prendizaje": 8088,
      "Ġconvenci": 8089,
      "ĠconvecciÃ³n": 8090,
      "Ġprogramadas": 8091,
      "ĠPago": 8092,
      "Ġnecesites": 8093,
      "Ġrelacionadas": 8094,
      "ProtecciÃ³n": 8095,
      "Propie": 8096,
      "Ġcurios": 8097,
      "Ġdigestivos": 8098,
      "ĠOptim": 8099,
      "ComparaciÃ³n": 8100,
      "ĠDise": 8101,
      "ĠDiscu": 8102,
      "Ġtransforma": 8103,
      "bool": 8104,
      "body": 8105,
      "jemplos": 8106,
      "Ġelegante": 8107,
      "Ġvivir": 8108,
      "ĠviviÃ³": 8109,
      "eneficios": 8110,
      "ĠcentrÃ³": 8111,
      "Ġeficientemente": 8112,
      "Ġmonitorear": 8113,
      "acate": 8114,
      "ĠrÃ¡pidos": 8115,
      "ĠcrÃŃticos": 8116,
      "market": 8117,
      "panish": 8118,
      "Ġmercados": 8119,
      "Ġbajas": 8120,
      "Ġcorreos": 8121,
      "Ġcorreta": 8122,
      "Ġcorregir": 8123,
      "Ġconstantemente": 8124,
      "Ġprimeros": 8125,
      "Ġsabe": 8126,
      "ĠgustarÃŃa": 8127,
      "Ġaborda": 8128,
      "Ġseleccionado": 8129,
      "Ġbalon": 8130,
      "Ġballena": 8131,
      "seguridad": 8132,
      "Ġtrabaja": 8133,
      "CuÃ¡nto": 8134,
      "Ġespero": 8135,
      "Ġesperar": 8136,
      "Ġinvertir": 8137,
      "Ġinversiones": 8138,
      "Ġfron": 8139,
      "Ġfrente": 8140,
      "ĠbiolÃ³gicos": 8141,
      "Ġbeneficioso": 8142,
      "bash": 8143,
      "Ġtabl": 8144,
      "Ġdefensa": 8145,
      "ĠpÃºblicos": 8146,
      "ĠcuadrÃ¡ticas": 8147,
      "ĠHeimlich": 8148,
      "ombia": 8149,
      "Ġvoz": 8150,
      "Ġlocalmente": 8151,
      "Ġradica": 8152,
      "ĠradiaciÃ³n": 8153,
      "mand": 8154,
      "ĠdejÃ³": 8155,
      "Ġ1895": 8156,
      "ĠTenemos": 8157,
      "ĠpsicolÃ³gica": 8158,
      "Ġcontribuciones": 8159,
      "Ġalumno": 8160,
      "illerato": 8161,
      "EST": 8162,
      "Ġlegado": 8163,
      "Ġlegales": 8164,
      "Ġglobalizado": 8165,
      "ĠperfecciÃ³n": 8166,
      "ĠObjetivos": 8167,
      "Ġreconocido": 8168,
      "081": 8169,
      "Ġmensajes": 8170,
      "Ġprobabil": 8171,
      "Ġconsultes": 8172,
      "Ġlectores": 8173,
      "Ġclaridad": 8174,
      "Ġindicadores": 8175,
      "Ġfacilidad": 8176,
      "Ġfacilit": 8177,
      "Ġfacilita": 8178,
      "ĠPermitir": 8179,
      "ĠCalcul": 8180,
      "Ġrespetar": 8181,
      "ĠTribunal": 8182,
      "Ġmentalidad": 8183,
      "Ġvence": 8184,
      "Ġbayesianos": 8185,
      "ondTable": 8186,
      "Ġguiar": 8187,
      "Ġguardar": 8188,
      "Ġgraves": 8189,
      "Ġextremas": 8190,
      "Ġpropietario": 8191
    },
    "merges": [
      [
        "d",
        "e"
      ],
      [
        "e",
        "n"
      ],
      [
        "č",
        "Ċ"
      ],
      [
        "e",
        "s"
      ],
      [
        "Ġ",
        "de"
      ],
      [
        "o",
        "s"
      ],
      [
        "Ġ",
        "p"
      ],
      [
        "Ġ",
        "Ġ"
      ],
      [
        "c",
        "i"
      ],
      [
        "Ġ",
        "l"
      ],
      [
        "a",
        "r"
      ],
      [
        "Ġ",
        "c"
      ],
      [
        "e",
        "r"
      ],
      [
        "a",
        "s"
      ],
      [
        "o",
        "n"
      ],
      [
        "Ġ",
        "s"
      ],
      [
        "Ġ",
        "a"
      ],
      [
        "o",
        "r"
      ],
      [
        "t",
        "i"
      ],
      [
        "Ã",
        "³"
      ],
      [
        "Ġ",
        "e"
      ],
      [
        "a",
        "l"
      ],
      [
        "a",
        "d"
      ],
      [
        "r",
        "e"
      ],
      [
        "u",
        "n"
      ],
      [
        "a",
        "n"
      ],
      [
        "Ġl",
        "a"
      ],
      [
        "u",
        "e"
      ],
      [
        "Ġ",
        "y"
      ],
      [
        "i",
        "n"
      ],
      [
        "Ġ",
        "m"
      ],
      [
        "t",
        "e"
      ],
      [
        "Ã³",
        "n"
      ],
      [
        "*",
        "*"
      ],
      [
        "Ġ",
        "en"
      ],
      [
        "Ġ",
        "čĊ"
      ],
      [
        "a",
        "ci"
      ],
      [
        "i",
        "c"
      ],
      [
        "ĠĠ",
        "ĠĠ"
      ],
      [
        "Ġ",
        "es"
      ],
      [
        "Ġ",
        "un"
      ],
      [
        "q",
        "ue"
      ],
      [
        "t",
        "r"
      ],
      [
        "o",
        "m"
      ],
      [
        "Ã",
        "Ń"
      ],
      [
        "i",
        "s"
      ],
      [
        "Ã",
        "¡"
      ],
      [
        "Ġe",
        "l"
      ],
      [
        "Ġc",
        "on"
      ],
      [
        "t",
        "o"
      ],
      [
        "i",
        "d"
      ],
      [
        "Ġ",
        "que"
      ],
      [
        "t",
        "a"
      ],
      [
        "l",
        "e"
      ],
      [
        "Ġ",
        "n"
      ],
      [
        "r",
        "o"
      ],
      [
        "aci",
        "Ã³n"
      ],
      [
        "Ġ",
        "d"
      ],
      [
        "Ġ",
        "in"
      ],
      [
        "Ġ",
        "**"
      ],
      [
        "Ġ",
        "f"
      ],
      [
        "Ġp",
        "ar"
      ],
      [
        "i",
        "m"
      ],
      [
        "Ġ",
        "h"
      ],
      [
        "Ġs",
        "e"
      ],
      [
        "t",
        "u"
      ],
      [
        "Ġc",
        "om"
      ],
      [
        "Ġ",
        "E"
      ],
      [
        "o",
        "l"
      ],
      [
        "Ġ",
        "re"
      ],
      [
        "Ã",
        "©"
      ],
      [
        "Ġ",
        "o"
      ],
      [
        "u",
        "s"
      ],
      [
        "Ġl",
        "os"
      ],
      [
        "a",
        "m"
      ],
      [
        "en",
        "t"
      ],
      [
        "e",
        "c"
      ],
      [
        "Ġpar",
        "a"
      ],
      [
        "on",
        "es"
      ],
      [
        "Ġ",
        "v"
      ],
      [
        "d",
        "o"
      ],
      [
        "Ġ",
        "-"
      ],
      [
        "Ġp",
        "ro"
      ],
      [
        "r",
        "es"
      ],
      [
        "Ġun",
        "a"
      ],
      [
        "Ġ",
        "b"
      ],
      [
        "Ġ",
        "A"
      ],
      [
        "Ġ",
        "t"
      ],
      [
        "ti",
        "v"
      ],
      [
        "Ġa",
        "l"
      ],
      [
        "i",
        "z"
      ],
      [
        "en",
        "te"
      ],
      [
        "ci",
        "Ã³n"
      ],
      [
        "Ġde",
        "l"
      ],
      [
        "t",
        "os"
      ],
      [
        "c",
        "u"
      ],
      [
        "Ġ",
        "L"
      ],
      [
        "Ġ",
        "P"
      ],
      [
        "Ġ",
        "1"
      ],
      [
        "ÃŃ",
        "a"
      ],
      [
        "r",
        "a"
      ],
      [
        "id",
        "ad"
      ],
      [
        "i",
        "l"
      ],
      [
        "Ġl",
        "as"
      ],
      [
        "p",
        "l"
      ],
      [
        ":",
        "**"
      ],
      [
        "Ġ",
        "("
      ],
      [
        "ad",
        "o"
      ],
      [
        "Ã",
        "º"
      ],
      [
        "en",
        "ci"
      ],
      [
        "i",
        "t"
      ],
      [
        "Ġ",
        "*"
      ],
      [
        "i",
        "g"
      ],
      [
        "Ġ",
        "C"
      ],
      [
        "a",
        "b"
      ],
      [
        "Ġ",
        "g"
      ],
      [
        "t",
        "er"
      ],
      [
        "Ġ",
        "S"
      ],
      [
        "Ġs",
        "u"
      ],
      [
        "ĠĠ",
        "Ġ"
      ],
      [
        "q",
        "u"
      ],
      [
        "ti",
        "c"
      ],
      [
        "i",
        "b"
      ],
      [
        "ĠĠĠĠ",
        "ĠĠĠĠ"
      ],
      [
        "a",
        "c"
      ],
      [
        "al",
        "es"
      ],
      [
        "i",
        "en"
      ],
      [
        "Ã¡",
        "s"
      ],
      [
        "e",
        "m"
      ],
      [
        "u",
        "l"
      ],
      [
        "f",
        "ic"
      ],
      [
        "Ġ",
        "2"
      ],
      [
        "Ġe",
        "x"
      ],
      [
        "d",
        "i"
      ],
      [
        "Ġde",
        "s"
      ],
      [
        "Ġcom",
        "p"
      ],
      [
        "m",
        "o"
      ],
      [
        "l",
        "o"
      ],
      [
        "Ġp",
        "er"
      ],
      [
        "-",
        "-"
      ],
      [
        "de",
        "n"
      ],
      [
        "ĠE",
        "s"
      ],
      [
        "u",
        "m"
      ],
      [
        "Ġp",
        "o"
      ],
      [
        "d",
        "a"
      ],
      [
        "Ġ",
        "\""
      ],
      [
        "Ġp",
        "ue"
      ],
      [
        "ad",
        "a"
      ],
      [
        "Ġ",
        "res"
      ],
      [
        "Ġm",
        "e"
      ],
      [
        "Ġp",
        "re"
      ],
      [
        "Ġn",
        "o"
      ],
      [
        "p",
        "or"
      ],
      [
        "or",
        "m"
      ],
      [
        "i",
        "v"
      ],
      [
        "de",
        "s"
      ],
      [
        "Ġl",
        "o"
      ],
      [
        "i",
        "o"
      ],
      [
        "Ġ",
        "te"
      ],
      [
        "Ġm",
        "Ã¡s"
      ],
      [
        "Ġ",
        "ti"
      ],
      [
        "tr",
        "a"
      ],
      [
        "enci",
        "a"
      ],
      [
        "u",
        "c"
      ],
      [
        "ĠL",
        "a"
      ],
      [
        "Ġp",
        "or"
      ],
      [
        "an",
        "do"
      ],
      [
        "s",
        "i"
      ],
      [
        "l",
        "a"
      ],
      [
        "i",
        "r"
      ],
      [
        "aci",
        "ones"
      ],
      [
        "b",
        "re"
      ],
      [
        "u",
        "r"
      ],
      [
        "Ġ",
        "="
      ],
      [
        "Ġcom",
        "o"
      ],
      [
        "i",
        "ci"
      ],
      [
        "t",
        "or"
      ],
      [
        "Ġ",
        "im"
      ],
      [
        "id",
        "a"
      ],
      [
        "Ġ",
        "I"
      ],
      [
        "Ġp",
        "r"
      ],
      [
        "Ġs",
        "er"
      ],
      [
        "le",
        "m"
      ],
      [
        "g",
        "o"
      ],
      [
        "Ġc",
        "u"
      ],
      [
        "Ã",
        "±"
      ],
      [
        "Ġ",
        "us"
      ],
      [
        "Ġ",
        "r"
      ],
      [
        "Ġs",
        "o"
      ],
      [
        "Ġ",
        "T"
      ],
      [
        "de",
        "r"
      ],
      [
        "Ġ",
        "3"
      ],
      [
        "p",
        "o"
      ],
      [
        "p",
        "er"
      ],
      [
        "i",
        "er"
      ],
      [
        "Ġ",
        "M"
      ],
      [
        "i",
        "a"
      ],
      [
        "Ġ",
        "|"
      ],
      [
        "e",
        "l"
      ],
      [
        "Ġ",
        "R"
      ],
      [
        "Ġa",
        "n"
      ],
      [
        "t",
        "as"
      ],
      [
        "**",
        ":"
      ],
      [
        "ad",
        "os"
      ],
      [
        "d",
        "ad"
      ],
      [
        "ic",
        "a"
      ],
      [
        "ent",
        "es"
      ],
      [
        "g",
        "un"
      ],
      [
        "Ġ",
        "\\"
      ],
      [
        "ci",
        "on"
      ],
      [
        "a",
        "p"
      ],
      [
        "t",
        "an"
      ],
      [
        "Ġ",
        "tr"
      ],
      [
        "Ġ",
        "j"
      ],
      [
        "Ġa",
        "c"
      ],
      [
        "t",
        "en"
      ],
      [
        "Ġ",
        "tu"
      ],
      [
        "Ġd",
        "i"
      ],
      [
        "Ġ",
        "D"
      ],
      [
        "Ã¡",
        "l"
      ],
      [
        "ci",
        "ones"
      ],
      [
        "Ġ",
        "4"
      ],
      [
        "ien",
        "to"
      ],
      [
        "m",
        "er"
      ],
      [
        "d",
        "r"
      ],
      [
        "a",
        "tiv"
      ],
      [
        "Ġm",
        "o"
      ],
      [
        "a",
        "j"
      ],
      [
        "t",
        "ar"
      ],
      [
        "Ġpro",
        "b"
      ],
      [
        "al",
        "iz"
      ],
      [
        "i",
        "os"
      ],
      [
        "pl",
        "ic"
      ],
      [
        "m",
        "b"
      ],
      [
        "Ġes",
        "p"
      ],
      [
        "u",
        "es"
      ],
      [
        "ad",
        "as"
      ],
      [
        "Ãº",
        "mer"
      ],
      [
        "id",
        "o"
      ],
      [
        "#",
        "#"
      ],
      [
        "is",
        "is"
      ],
      [
        "ad",
        "or"
      ],
      [
        "t",
        "es"
      ],
      [
        "ti",
        "l"
      ],
      [
        "m",
        "ente"
      ],
      [
        "ĠĠĠĠ",
        "ĠĠĠ"
      ],
      [
        "m",
        "a"
      ],
      [
        "Ġ",
        "U"
      ],
      [
        "i",
        "Ã³n"
      ],
      [
        "Ġes",
        "t"
      ],
      [
        "a",
        "y"
      ],
      [
        "f",
        "er"
      ],
      [
        "t",
        "re"
      ],
      [
        "Ġ",
        "ar"
      ],
      [
        "s",
        "e"
      ],
      [
        "Ġ",
        "N"
      ],
      [
        "Ġn",
        "Ãºmer"
      ],
      [
        "z",
        "a"
      ],
      [
        "ĠE",
        "n"
      ],
      [
        "f",
        "orm"
      ],
      [
        "c",
        "on"
      ],
      [
        "d",
        "ic"
      ],
      [
        "Ġ",
        "F"
      ],
      [
        "Ġs",
        "i"
      ],
      [
        "il",
        "idad"
      ],
      [
        "Ã¡",
        "n"
      ],
      [
        "Ã¡l",
        "isis"
      ],
      [
        "Ġd",
        "is"
      ],
      [
        "Ġ",
        "Â"
      ],
      [
        "tu",
        "r"
      ],
      [
        "Ġso",
        "bre"
      ],
      [
        "tic",
        "a"
      ],
      [
        "Ġ",
        "5"
      ],
      [
        "Ġpue",
        "de"
      ],
      [
        "p",
        "res"
      ],
      [
        "Ġs",
        "ol"
      ],
      [
        "re",
        "c"
      ],
      [
        "Ġpo",
        "dr"
      ],
      [
        "g",
        "r"
      ],
      [
        "Ġa",
        "p"
      ],
      [
        "Ġd",
        "a"
      ],
      [
        "--",
        "--"
      ],
      [
        "j",
        "or"
      ],
      [
        "Ġm",
        "an"
      ],
      [
        "ÃŃ",
        "s"
      ],
      [
        "l",
        "ar"
      ],
      [
        "i",
        "fic"
      ],
      [
        "Ġt",
        "en"
      ],
      [
        "Ġ",
        "as"
      ],
      [
        "p",
        "os"
      ],
      [
        "Ġin",
        "ter"
      ],
      [
        "ĠE",
        "l"
      ],
      [
        "Ġ",
        "B"
      ],
      [
        "l",
        "os"
      ],
      [
        "Ġ",
        "H"
      ],
      [
        "Ġp",
        "os"
      ],
      [
        "Ġprob",
        "lem"
      ],
      [
        "Ġ",
        "i"
      ],
      [
        "Ġus",
        "er"
      ],
      [
        "c",
        "es"
      ],
      [
        "e",
        "g"
      ],
      [
        "f",
        "ici"
      ],
      [
        "Ġper",
        "s"
      ],
      [
        "ec",
        "es"
      ],
      [
        "am",
        "ente"
      ],
      [
        "Ġ",
        "u"
      ],
      [
        "ic",
        "as"
      ],
      [
        "Ġ",
        "to"
      ],
      [
        "Ġen",
        "tre"
      ],
      [
        "Ġs",
        "ig"
      ],
      [
        "Ġda",
        "tos"
      ],
      [
        "ic",
        "os"
      ],
      [
        "er",
        "a"
      ],
      [
        "d",
        "os"
      ],
      [
        "Ġc",
        "or"
      ],
      [
        "Ġti",
        "en"
      ],
      [
        "g",
        "u"
      ],
      [
        "r",
        "en"
      ],
      [
        "Ġcomp",
        "le"
      ],
      [
        "Ġme",
        "jor"
      ],
      [
        "Ġ",
        "`"
      ],
      [
        "c",
        "h"
      ],
      [
        "u",
        "t"
      ],
      [
        "on",
        "al"
      ],
      [
        "0",
        "0"
      ],
      [
        "ida",
        "des"
      ],
      [
        "c",
        "l"
      ],
      [
        "tr",
        "o"
      ],
      [
        "d",
        "uc"
      ],
      [
        "m",
        "os"
      ],
      [
        "is",
        "t"
      ],
      [
        "Ġc",
        "am"
      ],
      [
        "Ġcon",
        "s"
      ],
      [
        "til",
        "iz"
      ],
      [
        "Ġe",
        "v"
      ],
      [
        "l",
        "es"
      ],
      [
        "Ġo",
        "b"
      ],
      [
        "ĠU",
        "n"
      ],
      [
        "Ġp",
        "a"
      ],
      [
        "Ġs",
        "on"
      ],
      [
        "is",
        "te"
      ],
      [
        "ent",
        "os"
      ],
      [
        "f",
        "ec"
      ],
      [
        "Ġc",
        "Ã³"
      ],
      [
        "t",
        "al"
      ],
      [
        "ti",
        "n"
      ],
      [
        "en",
        "s"
      ],
      [
        "Ġg",
        "r"
      ],
      [
        "ĠnÃºmer",
        "os"
      ],
      [
        "Ġmo",
        "de"
      ],
      [
        "ti",
        "m"
      ],
      [
        "ic",
        "o"
      ],
      [
        "le",
        "c"
      ],
      [
        "tic",
        "as"
      ],
      [
        "v",
        "er"
      ],
      [
        "u",
        "y"
      ],
      [
        "ĠA",
        "n"
      ],
      [
        "u",
        "ciÃ³n"
      ],
      [
        "al",
        "u"
      ],
      [
        "Ġ",
        "G"
      ],
      [
        "Ġm",
        "a"
      ],
      [
        "d",
        "ar"
      ],
      [
        "j",
        "e"
      ],
      [
        "Ġn",
        "eces"
      ],
      [
        "Ġ",
        "or"
      ],
      [
        "Ġ",
        "6"
      ],
      [
        "an",
        "te"
      ],
      [
        "tu",
        "ra"
      ],
      [
        "Ġ",
        "ci"
      ],
      [
        "Ġl",
        "e"
      ],
      [
        "g",
        "or"
      ],
      [
        "Ġs",
        "us"
      ],
      [
        "ĠS",
        "e"
      ],
      [
        "Ã©",
        "s"
      ],
      [
        "Ġpodr",
        "ÃŃa"
      ],
      [
        "Ġu",
        "tiliz"
      ],
      [
        "c",
        "e"
      ],
      [
        "m",
        "i"
      ],
      [
        "en",
        "ta"
      ],
      [
        "c",
        "a"
      ],
      [
        "p",
        "e"
      ],
      [
        "es",
        "ti"
      ],
      [
        "c",
        "n"
      ],
      [
        "Ġc",
        "ar"
      ],
      [
        "tiv",
        "o"
      ],
      [
        "u",
        "g"
      ],
      [
        "Ġde",
        "b"
      ],
      [
        "u",
        "er"
      ],
      [
        "Ġpro",
        "f"
      ],
      [
        "Ġo",
        "p"
      ],
      [
        "Ã©",
        "n"
      ],
      [
        "ĠĠĠĠĠĠĠĠ",
        "ĠĠĠĠĠĠĠĠ"
      ],
      [
        "Ġim",
        "por"
      ],
      [
        "ĠÂ",
        "¿"
      ],
      [
        "Ġc",
        "ap"
      ],
      [
        "an",
        "a"
      ],
      [
        "ent",
        "ar"
      ],
      [
        "ar",
        "ro"
      ],
      [
        "Ġp",
        "l"
      ],
      [
        "Ġc",
        "r"
      ],
      [
        "gor",
        "it"
      ],
      [
        "m",
        "in"
      ],
      [
        "ci",
        "a"
      ],
      [
        "Ġc",
        "al"
      ],
      [
        "Ġc",
        "re"
      ],
      [
        "tr",
        "os"
      ],
      [
        "Ġf",
        "orm"
      ],
      [
        "qu",
        "i"
      ],
      [
        "p",
        "ar"
      ],
      [
        "Ġdi",
        "fer"
      ],
      [
        "Ġcomple",
        "j"
      ],
      [
        "ta",
        "b"
      ],
      [
        "c",
        "ar"
      ],
      [
        "Ġe",
        "m"
      ],
      [
        "Ġen",
        "f"
      ],
      [
        "n",
        "o"
      ],
      [
        "v",
        "e"
      ],
      [
        "em",
        "pl"
      ],
      [
        "c",
        "r"
      ],
      [
        "x",
        "im"
      ],
      [
        "arro",
        "l"
      ],
      [
        "ĠC",
        "on"
      ],
      [
        "Ġpre",
        "dic"
[...]
